memory_initialization_radix=16;
memory_initialization_vector=
2A,
94,
6C,
B8,
6D,
23,
23,
46,
AD,
96,
AE,
19,
06,
DB,
E7,
C6,
B9,
0B,
21,
02,
18,
47,
C5,
C6,
F2,
BE,
04,
E5,
BC,
0B,
B1,
DA,
BA,
42,
D1,
4D,
D4,
F0,
43,
E0,
2F,
DA,
E1,
4E,
0D,
7A,
88,
45,
89,
E2,
75,
AD,
A5,
69,
AF,
77,
7A,
F6,
B8,
9B,
47,
8A,
FA,
62,
0C,
FA,
CE,
E6,
D6,
1A,
4E,
E1,
A1,
40,
E6,
B5,
7C,
FA,
AE,
6E,
1B,
B2,
C3,
D9,
6F,
40,
C7,
9E,
0D,
6E,
69,
92,
30,
23,
C6,
29,
01,
59,
7E,
45,
7B,
D5,
33,
66,
6B,
98,
8C,
9C,
9B,
4D,
A1,
F8,
B9,
8D,
E0,
42,
F7,
94,
5A,
19,
EE,
AF,
9A,
23,
42,
25,
AB,
4E,
AE,
08,
4F,
17,
A8,
2C,
8E,
B9,
AE,
67,
D7,
E8,
57,
6C,
91,
38,
D1,
3D,
A4,
3A,
00,
F4,
55,
6D,
D0,
52,
13,
3E,
F5,
02,
FF,
DF,
CF,
BC,
F8,
5B,
16,
75,
5E,
C4,
62,
92,
F4,
BA,
3F,
58,
93,
FB,
B1,
E9,
AC,
E8,
31,
B8,
69,
DC,
09,
0D,
88,
32,
56,
DC,
7A,
57,
32,
9D,
7D,
7B,
37,
F4,
40,
15,
E7,
EE,
B4,
BE,
0B,
6E,
1D,
C9,
CC,
BC,
1E,
EB,
90,
DD,
38,
51,
02,
4D,
FC,
8B,
E7,
77,
65,
A2,
81,
96,
40,
5F,
04,
32,
53,
7D,
28,
27,
B1,
30,
16,
3D,
29,
CE,
A1,
B4,
47,
C2,
3F,
D6,
89,
C4,
89,
9B,
32,
24,
7B,
18,
98,
B7,
8C,
F1,
1D,
62,
16,
0E,
67,
47,
12,
8F,
3B,
BD,
C6,
E8,
87,
3E,
44,
F1,
7A,
D8,
C4,
26,
FF,
10,
0B,
B6,
E0,
DB,
D1,
3A,
84,
97,
F1,
93,
6E,
43,
E1,
D6,
65,
39,
E5,
4F,
B9,
B7,
D0,
AE,
21,
62,
3E,
ED,
52,
D7,
18,
98,
B8,
91,
3B,
7E,
7F,
07,
01,
15,
93,
C9,
6B,
5A,
6A,
D9,
34,
C1,
47,
31,
EF,
56,
CC,
20,
29,
26,
94,
6F,
2C,
B1,
F7,
0D,
69,
88,
E8,
98,
58,
8C,
22,
18,
BD,
EC,
B6,
4A,
D5,
03,
DF,
3E,
6F,
E5,
42,
F4,
76,
0C,
FD,
88,
5D,
23,
EA,
7E,
30,
33,
39,
CE,
F4,
D6,
8E,
C8,
0B,
A6,
7A,
05,
A4,
1C,
F1,
C7,
00,
69,
31,
55,
D2,
99,
0E,
5D,
56,
01,
29,
86,
2A,
DA,
97,
26,
37,
C6,
AE,
6A,
2C,
53,
91,
7E,
9B,
89,
48,
73,
E4,
97,
A7,
7D,
A7,
8A,
A7,
2F,
CD,
0A,
6C,
F0,
11,
92,
8A,
03,
11,
F8,
E9,
F0,
0F,
AB,
48,
4E,
73,
EF,
65,
8C,
02,
A1,
0D,
09,
9B,
AE,
D0,
FF,
05,
AA,
95,
BF,
BD,
AF,
D8,
16,
7D,
1A,
26,
C0,
96,
94,
0B,
F7,
E4,
8D,
56,
FE,
E4,
87,
BE,
DE,
E9,
9D,
7D,
E8,
A2,
91,
DF,
0A,
0F,
0D,
7E,
3D,
3C,
59,
16,
4C,
F6,
04,
1F,
6A,
4D,
3B,
A3,
11,
2F,
6E,
65,
1D,
5C,
41,
65,
DA,
48,
51,
22,
62,
FC,
5C,
1F,
7A,
23,
3F,
F7,
9A,
DE,
EC,
C9,
73,
DB,
19,
6E,
0B,
9F,
A6,
20,
D6,
BA,
FB,
F4,
18,
FD,
AA,
37,
17,
0A,
BE,
74,
92,
8A,
D2,
0F,
B1,
AE,
9E,
B2,
91,
92,
E5,
9D,
84,
EF,
53,
9E,
DB,
75,
64,
5D,
90,
78,
70,
D3,
FF,
CB,
EE,
84,
83,
8B,
FA,
27,
DB,
0F,
E5,
C6,
F3,
5E,
D3,
4E,
7A,
93,
F1,
4A,
74,
7B,
AC,
8F,
02,
B4,
E9,
0B,
62,
58,
9E,
7E,
4C,
50,
A3,
46,
FD,
FA,
B0,
7B,
DD,
A7,
8D,
95,
78,
15,
FA,
BF,
3E,
E2,
34,
84,
C8,
EE,
6F,
E5,
79,
04,
5F,
D6,
63,
A0,
63,
09,
25,
68,
51,
E5,
2F,
A7,
4D,
27,
22,
7A,
83,
EF,
5A,
F1,
09,
78,
C2,
A5,
0D,
29,
EB,
39,
AF,
47,
17,
8E,
6D,
AD,
8F,
58,
57,
A0,
EF,
14,
4F,
C6,
1C,
3E,
C3,
EB,
F0,
91,
15,
6B,
B2,
2E,
AC,
B2,
E7,
92,
EF,
5B,
2F,
5B,
EC,
E8,
55,
6B,
E2,
93,
CA,
93,
14,
BC,
29,
08,
31,
35,
E7,
C5,
22,
1B,
A5,
A1,
1C,
05,
11,
E0,
32,
F9,
A0,
4E,
F5,
4A,
2B,
32,
84,
1F,
75,
6E,
56,
9A,
54,
58,
FE,
ED,
85,
B9,
85,
31,
9F,
C7,
E6,
BC,
5D,
C2,
12,
CD,
75,
EA,
96,
35,
B5,
6B,
A2,
34,
CD,
0B,
55,
A1,
28,
0F,
64,
C9,
9B,
9A,
7A,
E4,
2E,
F4,
CA,
63,
12,
23,
7F,
74,
D3,
1C,
E3,
3A,
9E,
3F,
23,
75,
32,
E1,
D5,
34,
0B,
B1,
DE,
4A,
5D,
BA,
30,
5B,
8F,
F2,
04,
EF,
4E,
4F,
65,
32,
9D,
B6,
F6,
AE,
26,
62,
2C,
36,
56,
29,
2C,
D5,
88,
25,
09,
46,
2A,
0E,
3B,
0A,
B1,
C8,
A6,
1A,
9D,
4E,
43,
A9,
CC,
60,
2E,
50,
DD,
40,
4F,
D8,
9F,
CD,
76,
01,
D0,
0C,
30,
5B,
55,
84,
62,
32,
3A,
66,
10,
45,
64,
A2,
DF,
B2,
5F,
88,
E3,
36,
44,
95,
24,
B3,
49,
7E,
E3,
8C,
94,
0C,
18,
31,
29,
79,
39,
BA,
8A,
43,
D9,
05,
A0,
12,
FD,
42,
A3,
42,
A0,
D6,
0E,
5B,
82,
E6,
0B,
4F,
67,
8F,
F4,
37,
D3,
1E,
AE,
3D,
71,
D5,
51,
52,
C9,
09,
1D,
BB,
86,
C0,
59,
75,
0C,
9F,
68,
21,
DD,
AD,
DE,
FA,
71,
12,
AA,
FA,
21,
A4,
14,
86,
9B,
4D,
85,
89,
88,
76,
16,
62,
51,
2E,
15,
37,
72,
D3,
E3,
51,
9A,
10,
37,
CE,
70,
40,
BA,
36,
12,
8C,
29,
C9,
6E,
E0,
9D,
AC,
14,
6A,
98,
25,
BA,
96,
68,
81,
4A,
5C,
1A,
01,
A4,
57,
08,
F7,
93,
FB,
8A,
3E,
42,
54,
D5,
57,
5F,
18,
97,
C6,
C0,
62,
59,
84,
EA,
86,
3E,
14,
67,
23,
48,
49,
C3,
4E,
4C,
AF,
95,
9D,
85,
40,
C4,
BC,
70,
D8,
30,
59,
0A,
B9,
E6,
DB,
5C,
24,
51,
9F,
B3,
3E,
3C,
CE,
DE,
27,
F6,
EB,
6E,
60,
4D,
11,
96,
16,
A0,
39,
9C,
17,
BA,
03,
6A,
C6,
DE,
40,
F4,
CC,
10,
C0,
84,
C8,
93,
F0,
18,
4D,
44,
CF,
48,
98,
6F,
42,
7A,
B7,
3F,
CD,
62,
C9,
90,
CF,
15,
E9,
CD,
B3,
72,
6B,
75,
EB,
6C,
E9,
A5,
10,
3E,
FC,
4A,
72,
19,
08,
2B,
E8,
E3,
F4,
09,
B3,
1B,
CB,
D1,
D6,
D2,
16,
14,
01,
81,
15,
7C,
5B,
DF,
F7,
EC,
26,
A2,
17,
F7,
EB,
12,
0E,
6A,
04,
5E,
BA,
07,
71,
1F,
0C,
EF,
9A,
51,
22,
0D,
FE,
EE,
65,
31,
10,
F7,
85,
FA,
01,
C6,
63,
17,
57,
EA,
84,
53,
5C,
B5,
DD,
8B,
39,
84,
10,
B7,
34,
02,
7E,
07,
F8,
BC,
B2,
C7,
15,
3B,
55,
BE,
7C,
B6,
C8,
6D,
D8,
7D,
79,
A4,
3E,
86,
02,
BB,
CF,
AB,
B1,
2C,
CA,
3A,
5F,
3D,
25,
E5,
29,
E5,
05,
CE,
85,
85,
A5,
0B,
BF,
7D,
A7,
D8,
AB,
46,
5A,
0D,
03,
10,
3B,
2E,
CD,
58,
79,
81,
99,
3E,
99,
24,
58,
68,
1A,
ED,
10,
A6,
C5,
9A,
91,
9E,
15,
3B,
92,
E2,
B8,
63,
EF,
94,
12,
0C,
74,
AC,
A7,
98,
0B,
45,
24,
4B,
EB,
6A,
70,
23,
26,
47,
82,
1A,
D1,
87,
C4,
1D,
47,
5D,
42,
AF,
D2,
90,
3F,
B6,
A9,
48,
35,
A4,
A7,
F8,
A6,
C9,
83,
9F,
2E,
85,
16,
9D,
C8,
1E,
B3,
CD,
20,
91,
E7,
5D,
9D,
A7,
FB,
1D,
42,
0F,
24,
5D,
BA,
31,
05,
AC,
09,
3F,
AE,
19,
4C,
3B,
06,
07,
F4,
BD,
2A,
D9,
EA,
FC,
E3,
63,
AC,
CD,
FE,
08,
BE,
73,
AE,
F9,
12,
A5,
91,
14,
72,
DF,
4B,
EC,
D1,
11,
66,
BC,
A1,
B9,
DF,
34,
31,
43,
62,
DE,
AE,
FC,
71,
57,
14,
36,
E3,
6D,
0E,
D5,
0B,
A6,
B5,
FD,
0E,
6D,
C9,
14,
FB,
27,
84,
CC,
A8,
11,
C3,
F0,
AD,
FE,
09,
71,
F3,
CF,
96,
0B,
6B,
EE,
4E,
DD,
6F,
C9,
62,
24,
CB,
C9,
E4,
CA,
62,
06,
F6,
0D,
D2,
3F,
5B,
77,
3D,
75,
FE,
09,
F8,
13,
07,
45,
3F,
B1,
07,
19,
32,
7D,
9A,
73,
3B,
49,
C3,
99,
F6,
C0,
E4,
B8,
6C,
F8,
9F,
8C,
C4,
EE,
B6,
B6,
C7,
F6,
B1,
A6,
34,
5B,
A9,
99,
36,
C6,
8E,
70,
82,
9D,
2E,
A2,
D8,
CB,
19,
21,
CD,
91,
E8,
AC,
57,
C7,
E1,
0B,
26,
0B,
37,
CF,
D0,
75,
5D,
5E,
E3,
16,
66,
FE,
DC,
B3,
1E,
D6,
C1,
D3,
32,
E6,
1F,
62,
73,
D3,
7E,
2D,
4D,
D1,
A9,
68,
D9,
FB,
78,
E6,
0F,
39,
35,
89,
5D,
4B,
98,
41,
EA,
81,
06,
17,
3B,
84,
24,
1D,
45,
35,
F7,
13,
09,
81,
1C,
8D,
26,
87,
AC,
91,
BE,
BA,
67,
19,
82,
D6,
1E,
EF,
DE,
B8,
B4,
B4,
09,
AA,
8D,
81,
76,
4C,
53,
D8,
84,
AD,
5A,
DA,
C4,
FB,
B2,
03,
82,
BE,
10,
AA,
A5,
A0,
5B,
58,
FA,
6D,
5E,
5C,
02,
2F,
F3,
24,
D0,
AF,
A1,
52,
3F,
38,
20,
89,
28,
88,
F7,
1C,
F9,
04,
24,
A0,
DB,
2D,
D1,
EF,
87,
C9,
67,
9C,
EF,
0B,
64,
68,
A7,
15,
62,
BB,
70,
35,
DB,
9F,
A5,
F0,
C5,
71,
9D,
8B,
F2,
BF,
6B,
B8,
F4,
6C,
3B,
73,
0C,
37,
CD,
CC,
CD,
51,
0F,
72,
A0,
F4,
ED,
4B,
A5,
1B,
B2,
C9,
D7,
41,
5E,
2A,
FC,
D5,
2C,
97,
98,
76,
3A,
FD,
5A,
C3,
EE,
82,
30,
AE,
26,
07,
5E,
AB,
44,
A1,
E0,
C1,
43,
C6,
06,
64,
B1,
1D,
F5,
F3,
CF,
4E,
8B,
C4,
D3,
4B,
9C,
B1,
06,
DD,
BD,
97,
75,
D7,
50,
23,
C6,
36,
BF,
3A,
E9,
C3,
A4,
D7,
F5,
E6,
06,
56,
46,
40,
56,
64,
2B,
6B,
6E,
90,
1A,
B7,
50,
CD,
B3,
63,
93,
69,
36,
98,
AB,
7A,
6E,
B9,
50,
1A,
63,
E3,
56,
F2,
7A,
FF,
42,
D4,
7B,
99,
E4,
C9,
B0,
5C,
62,
FC,
E4,
36,
89,
5C,
0F,
DD,
AA,
4A,
C6,
21,
4C,
21,
70,
B3,
F1,
68,
F2,
6F,
D9,
56,
EF,
C5,
5A,
1C,
5F,
20,
37,
92,
2F,
1E,
BC,
B6,
88,
88,
EC,
FB,
1F,
E8,
A1,
E1,
29,
93,
3C,
5A,
10,
E1,
F9,
8B,
CC,
DF,
3B,
29,
00,
71,
50,
ED,
D0,
3F,
6C,
EE,
FB,
DB,
96,
34,
3C,
2F,
E3,
C1,
D4,
78,
CA,
24,
A6,
20,
99,
DF,
55,
64,
AB,
2A,
A6,
73,
12,
FE,
F1,
42,
A0,
30,
63,
A7,
85,
97,
A6,
E6,
C9,
FA,
D5,
51,
73,
38,
55,
47,
CB,
BF,
49,
76,
62,
A7,
42,
B2,
75,
7D,
94,
76,
46,
C5,
FC,
FB,
52,
A0,
03,
C0,
F5,
65,
B4,
CD,
63,
AC,
66,
34,
6C,
BB,
44,
95,
F4,
DB,
D7,
06,
62,
B6,
C1,
7A,
A2,
B2,
CD,
9F,
96,
EE,
7A,
F9,
A8,
1D,
CA,
AD,
99,
EB,
DB,
E3,
9A,
A8,
08,
D9,
CC,
05,
C9,
26,
79,
79,
75,
4C,
9C,
DB,
B9,
6F,
5C,
C0,
11,
3A,
4E,
00,
74,
9A,
6E,
E1,
F4,
3E,
16,
47,
26,
B2,
4E,
F0,
4E,
B0,
F4,
2B,
63,
F5,
8C,
B4,
A3,
30,
2E,
DB,
E6,
10,
1D,
B4,
01,
78,
43,
7D,
D7,
F6,
BA,
6E,
B7,
A7,
60,
89,
7E,
BC,
3A,
42,
2F,
F4,
E0,
C5,
C6,
62,
EC,
41,
E6,
8F,
14,
8C,
0B,
C3,
C9,
CF,
A7,
E4,
94,
D2,
79,
82,
44,
D8,
1C,
FB,
F5,
C9,
E5,
D2,
9A,
6C,
D6,
1D,
7E,
56,
A2,
E7,
95,
F3,
3E,
35,
37,
0E,
F8,
DE,
EA,
B8,
DC,
3F,
00,
2A,
E9,
34,
68,
05,
F4,
A7,
66,
71,
70,
98,
06,
6E,
BA,
CC,
3E,
23,
D5,
44,
33,
DA,
C3,
E1,
CD,
A4,
BE,
65,
AD,
6F,
86,
B1,
DC,
6D,
AF,
E0,
72,
BA,
DB,
18,
D3,
2E,
44,
4D,
FA,
28,
F9,
F5,
4A,
FB,
8C,
FC,
5B,
06,
E9,
DA,
83,
B4,
3B,
F2,
54,
7A,
99,
72,
38,
C0,
1C,
77,
F3,
87,
64,
27,
C7,
A3,
C9,
42,
29,
4F,
D4,
EB,
08,
05,
6B,
8D,
B8,
9D,
15,
B3,
8C,
6F,
D3,
30,
BA,
E6,
20,
9F,
94,
41,
16,
27,
74,
8D,
18,
65,
59,
D9,
F3,
51,
F1,
E9,
95,
11,
34,
0E,
DC,
F9,
58,
73,
1E,
CB,
C0,
EE,
46,
44,
EF,
23,
82,
64,
17,
FA,
51,
A1,
EF,
F0,
F8,
BC,
51,
1A,
5C,
11,
69,
1B,
5D,
E9,
92,
7F,
4B,
F9,
29,
72,
9F,
D2,
2B,
A5,
BC,
02,
14,
F8,
72,
4C,
E5,
68,
7B,
F2,
97,
BB,
73,
DE,
61,
0E,
C2,
2D,
60,
D8,
D7,
05,
BC,
D5,
86,
16,
43,
A8,
99,
E4,
F0,
7A,
D1,
0A,
92,
EF,
C0,
48,
FA,
77,
4F,
F1,
44,
00,
4F,
3A,
AD,
A7,
FF,
9D,
4A,
7E,
A2,
0D,
47,
91,
36,
4B,
F7,
6C,
56,
85,
CA,
D6,
C0,
F1,
DB,
89,
8F,
25,
02,
EE,
70,
5C,
52,
B1,
91,
64,
FD,
A5,
89,
C0,
29,
53,
59,
D7,
42,
F2,
DC,
9D,
D2,
CB,
7C,
25,
2D,
E5,
E7,
4B,
88,
9A,
2D,
38,
C6,
DB,
40,
D7,
DC,
12,
39,
A4,
29,
F8,
46,
2A,
66,
2A,
A4,
6C,
A1,
00,
60,
D3,
CE,
5D,
6C,
88,
93,
78,
26,
A3,
6A,
CC,
22,
97,
06,
25,
BC,
72,
5E,
8E,
FB,
BB,
A6,
89,
F8,
4A,
48,
00,
BC,
01,
0E,
C9,
A4,
BD,
49,
A6,
46,
38,
32,
63,
69,
CF,
0E,
AB,
A5,
51,
F1,
54,
72,
A4,
64,
74,
50,
08,
3C,
62,
45,
B8,
6E,
C8,
61,
9E,
A0,
B1,
35,
8C,
DE,
48,
E1,
7B,
55,
88,
97,
8C,
6F,
84,
7C,
40,
18,
40,
BE,
D0,
1B,
17,
2D,
F0,
A9,
F6,
E0,
0D,
25,
0E,
B6,
57,
AC,
D3,
BC,
43,
65,
B8,
66,
3C,
1F,
03,
F2,
CE,
BF,
E1,
FA,
7E,
63,
CD,
FA,
7B,
BD,
9D,
B7,
F2,
7D,
9E,
3B,
16,
3C,
A6,
BE,
83,
16,
AE,
8A,
33,
FB,
09,
E5,
73,
CA,
13,
2B,
E7,
83,
17,
D2,
7B,
87,
71,
63,
97,
40,
56,
2A,
4D,
27,
8D,
E0,
0F,
E1,
E0,
C5,
C1,
E2,
4C,
85,
75,
9C,
E6,
61,
3A,
83,
1F,
8D,
93,
A9,
DD,
71,
84,
C6,
83,
AF,
ED,
FF,
92,
1F,
40,
EA,
05,
C5,
31,
14,
CF,
29,
FD,
FF,
01,
93,
57,
F5,
9E,
CB,
1D,
56,
67,
C5,
28,
55,
8E,
1E,
A2,
10,
05,
B1,
A2,
D0,
7E,
CA,
4F,
4B,
19,
C1,
54,
2C,
0A,
FE,
6C,
CF,
4C,
2F,
74,
2F,
2B,
FE,
01,
FC,
D9,
11,
19,
48,
7C,
8B,
BC,
03,
E1,
B6,
CE,
EF,
76,
79,
4D,
DB,
B2,
B1,
DC,
9F,
BB,
39,
8A,
FA,
B4,
99,
85,
77,
01,
9F,
F2,
59,
B0,
E5,
24,
EC,
AC,
8D,
A1,
2B,
FA,
1D,
3D,
4C,
2E,
DE,
BD,
47,
48,
A8,
9C,
74,
03,
7B,
9A,
A3,
76,
1D,
2E,
8C,
D8,
D3,
F7,
BC,
2D,
69,
F8,
67,
F1,
AD,
59,
16,
34,
94,
CA,
72,
9C,
6A,
72,
8F,
7B,
0E,
75,
7F,
00,
1C,
3B,
5D,
85,
19,
DE,
1D,
5A,
1C,
8A,
54,
7A,
4F,
44,
3C,
0C,
5D,
BE,
EA,
3C,
41,
59,
0C,
D6,
81,
6C,
BD,
04,
54,
50,
15,
DD,
B3,
01,
9D,
65,
AD,
C9,
BD,
18,
22,
C3,
A5,
F3,
DF,
61,
C4,
03,
A8,
9A,
F3,
69,
50,
82,
5C,
5C,
1C,
54,
65,
47,
4A,
8C,
6E,
0F,
F7,
6B,
3C,
60,
8F,
6E,
38,
73,
05,
26,
CF,
CF,
A9,
47,
6C,
A8,
53,
45,
99,
A0,
0C,
E7,
EF,
CE,
63,
27,
0E,
02,
3A,
CB,
0F,
CC,
2D,
05,
05,
33,
C2,
19,
94,
22,
B7,
74,
A8,
97,
3B,
3D,
A0,
EF,
A6,
91,
B2,
31,
AA,
3F,
65,
BA,
0B,
01,
28,
93,
85,
D2,
98,
29,
45,
9D,
37,
0B,
5C,
08,
7C,
4C,
85,
AE,
A4,
6D,
33,
36,
34,
D9,
5D,
74,
67,
A2,
2E,
83,
85,
88,
77,
67,
7A,
4B,
7F,
F0,
FC,
6F,
8B,
8E,
64,
E7,
A1,
C1,
D2,
E8,
B1,
1A,
0A,
F0,
5D,
58,
03,
26,
BC,
E9,
0C,
2C,
BE,
3E,
4C,
C1,
B8,
48,
6E,
A0,
67,
CA,
30,
79,
A5,
83,
C1,
AC,
38,
93,
60,
B4,
A9,
05,
65,
EF,
4A,
2D,
66,
AD,
0F,
F1,
3F,
C8,
3D,
5B,
40,
0E,
8F,
E7,
B8,
45,
DE,
0B,
D8,
EF,
F0,
4B,
31,
CB,
D8,
F2,
24,
B7,
6B,
A6,
95,
72,
0D,
3B,
82,
4D,
6C,
C2,
B1,
B4,
26,
D0,
43,
54,
20,
D3,
46,
51,
B9,
C9,
90,
39,
AF,
E2,
7A,
ED,
77,
FC,
51,
BD,
5F,
9C,
1D,
3C,
68,
5E,
AA,
1B,
4C,
A7,
4C,
B1,
46,
03,
22,
C4,
E7,
6E,
2B,
5A,
A8,
B3,
B4,
DB,
A8,
06,
8F,
C1,
0F,
6B,
FF,
4E,
A6,
3C,
B8,
96,
E5,
7E,
DB,
63,
A1,
9F,
E1,
68,
17,
96,
0E,
89,
67,
40,
59,
50,
25,
87,
8D,
36,
30,
F3,
1F,
AE,
A9,
4E,
C8,
89,
1D,
5D,
CB,
73,
C5,
32,
E7,
C3,
FB,
29,
9E,
01,
CA,
1E,
0F,
78,
08,
92,
44,
BA,
71,
62,
7E,
36,
A1,
CC,
8D,
F3,
F6,
50,
EC,
DB,
53,
09,
5D,
4F,
AE,
8F,
DF,
98,
7F,
B2,
5F,
B0,
BC,
0E,
FE,
F7,
23,
56,
9F,
B6,
FF,
2B,
00,
71,
F5,
6B,
4D,
9B,
4E,
D1,
7A,
DF,
86,
47,
AF,
EB,
25,
09,
DD,
A0,
F9,
85,
29,
F6,
B0,
A3,
00,
79,
4A,
72,
16,
F3,
25,
70,
92,
A4,
08,
42,
E9,
59,
DC,
38,
0D,
C7,
03,
13,
13,
69,
34,
6B,
4C,
DC,
E6,
6E,
3D,
D0,
B9,
8F,
EB,
1B,
C9,
23,
2A,
A5,
5A,
1E,
60,
A6,
6C,
BD,
B8,
57,
13,
9B,
9C,
3A,
CE,
38,
F0,
74,
92,
F0,
0C,
00,
5C,
12,
76,
0B,
9E,
CA,
53,
7B,
B5,
8C,
AD,
39,
24,
D7,
CC,
4D,
0E,
5F,
28,
5D,
50,
49,
AD,
56,
33,
19,
42,
0B,
D5,
BA,
A3,
1F,
5B,
FD,
88,
18,
C4,
F4,
46,
7D,
75,
5A,
A9,
4F,
1F,
49,
AC,
A9,
68,
7C,
40,
14,
EF,
28,
12,
23,
F7,
C7,
A6,
87,
05,
5F,
EC,
0A,
1A,
98,
01,
54,
F2,
9B,
6B,
F4,
24,
3D,
E0,
E6,
D8,
25,
82,
14,
B0,
92,
2C,
C1,
F6,
4E,
86,
AA,
99,
32,
E0,
22,
49,
A3,
88,
B9,
99,
7B,
D6,
E6,
E5,
23,
BF,
D0,
B8,
73,
68,
71,
71,
7B,
43,
F4,
20,
8E,
D1,
4F,
32,
7E,
C1,
D8,
35,
F8,
69,
57,
B7,
B9,
05,
65,
5C,
5E,
0A,
7A,
60,
77,
30,
98,
AD,
C3,
92,
71,
C9,
78,
A7,
9A,
E9,
DC,
AB,
BB,
3A,
B0,
0A,
CC,
BA,
3F,
E4,
57,
29,
6B,
FE,
F8,
C9,
A1,
5B,
28,
49,
57,
51,
7B,
1A,
75,
B1,
38,
07,
5E,
9A,
B4,
24,
00,
EC,
95,
66,
53,
6D,
30,
15,
49,
7A,
41,
5F,
1F,
59,
A2,
F0,
F1,
F6,
2A,
11,
A1,
29,
61,
E6,
86,
19,
3E,
92,
37,
6F,
18,
77,
70,
BC,
E9,
A9,
D6,
A0,
5D,
CE,
CB,
2F,
6D,
C9,
0B,
79,
61,
B7,
1E,
2D,
52,
AE,
99,
D6,
35,
F3,
FD,
8A,
C0,
01,
83,
97,
77,
94,
D7,
19,
D4,
87,
98,
D3,
B8,
A2,
53,
1A,
1B,
20,
62,
A6,
A9,
E9,
D0,
4A,
0E,
6B,
6D,
BD,
6F,
6E,
2C,
69,
5F,
28,
D9,
C4,
E3,
70,
C8,
EF,
45,
63,
D6,
99,
75,
05,
E7,
1D,
1E,
5E,
DF,
D6,
ED,
52,
91,
0C,
EE,
60,
F2,
AD,
73,
6F,
9F,
F8,
25,
B9,
8A,
92,
13,
AB,
AD,
7B,
8C,
B0,
D2,
02,
86,
DB,
5C,
F4,
A4,
D8,
BA,
E1,
47,
D6,
EE,
EA,
69,
82,
A8,
6A,
9C,
57,
3C,
60,
3B,
8E,
DC,
6F,
4A,
5D,
20,
B4,
BF,
D4,
A0,
46,
59,
AE,
FA,
D0,
3C,
A3,
36,
76,
8E,
BF,
85,
39,
B0,
A2,
75,
52,
F5,
63,
9E,
7A,
DE,
FD,
6E,
51,
C3,
6E,
31,
F8,
A3,
AF,
63,
7A,
F9,
09,
5C,
7A,
F5,
8D,
0B,
89,
E4,
14,
5D,
2C,
C4,
9E,
76,
1C,
2C,
C7,
32,
1B,
E1,
9A,
B5,
85,
99,
13,
29,
CD,
9B,
BA,
13,
C7,
FA,
C6,
98,
1F,
94,
9B,
7D,
E4,
0E,
BA,
0E,
69,
1C,
40,
52,
53,
D1,
98,
B6,
3D,
FB,
69,
E3,
D1,
28,
3C,
6E,
E7,
3D,
D8,
6D,
0D,
8A,
7B,
5E,
21,
36,
8A,
60,
B2,
B1,
C1,
97,
D9,
F6,
E8,
C6,
B1,
8B,
20,
7F,
83,
14,
67,
39,
76,
0E,
83,
F2,
B3,
3E,
EB,
AF,
6A,
54,
DE,
49,
F7,
E5,
EC,
AC,
B8,
7B,
CE,
3D,
47,
65,
1D,
1C,
5E,
19,
19,
A7,
0C,
DD,
99,
57,
B6,
A9,
9A,
95,
C3,
EC,
16,
47,
CF,
D1,
5E,
52,
96,
19,
F4,
5A,
82,
E4,
31,
3D,
60,
A6,
BB,
83,
F7,
99,
3C,
4A,
56,
37,
FA,
3A,
0D,
89,
63,
99,
BF,
AC,
BE,
64,
CF,
8E,
31,
20,
0B,
75,
F6,
ED,
34,
6F,
9B,
97,
A5,
DA,
9C,
7A,
C5,
19,
16,
5A,
9F,
62,
B4,
4B,
4C,
F1,
08,
F7,
7A,
EF,
DA,
4B,
BF,
88,
94,
58,
4A,
DB,
79,
BB,
49,
F8,
CD,
DE,
EF,
64,
1A,
9B,
D4,
A0,
47,
E6,
F3,
58,
94,
50,
85,
8F,
D9,
FA,
F8,
8B,
77,
E0,
1D,
AF,
6B,
E9,
B1,
1A,
02,
D4,
B9,
12,
FB,
E1,
A1,
AD,
E4,
A3,
28,
F7,
C4,
95,
AF,
4D,
A6,
B6,
3A,
D3,
78,
EE,
BE,
BD,
44,
C5,
67,
8D,
1E,
15,
22,
94,
FC,
75,
0C,
48,
09,
45,
0D,
10,
01,
2D,
57,
B6,
FF,
EC,
53,
E1,
7D,
58,
1C,
C8,
09,
1B,
10,
FF,
60,
57,
AC,
F9,
66,
83,
D5,
4C,
A8,
E7,
FB,
5E,
F6,
82,
47,
B2,
F5,
4F,
72,
A8,
E1,
EF,
5F,
11,
93,
14,
B8,
52,
4D,
50,
08,
EE,
55,
1B,
48,
99,
AA,
66,
D6,
33,
22,
4D,
3A,
58,
33,
3F,
70,
50,
47,
AB,
32,
91,
75,
FD,
2D,
4F,
91,
38,
F2,
6C,
14,
D0,
ED,
08,
6D,
FC,
66,
40,
CF,
77,
4D,
4C,
E1,
4F,
4F,
CF,
B3,
D3,
BF,
12,
8D,
49,
BB,
1F,
84,
DF,
A6,
D5,
FA,
A1,
33,
04,
26,
18,
01,
7E,
D2,
A0,
0A,
14,
33,
EA,
8B,
11,
82,
BB,
DC,
DF,
25,
C1,
CC,
C7,
D0,
A2,
F6,
03,
B7,
D8,
D4,
D1,
CD,
FE,
DB,
1D,
1D,
26,
13,
65,
E1,
4D,
76,
C8,
8F,
7A,
CF,
C9,
67,
DB,
18,
72,
9A,
50,
86,
B6,
D4,
F0,
A1,
0E,
0F,
5A,
B1,
CC,
B7,
C0,
BD,
2D,
D7,
1A,
EE,
86,
E5,
44,
7A,
DD,
F9,
B7,
95,
7A,
A7,
11,
95,
1B,
6E,
E3,
0A,
A6,
C9,
DF,
EB,
1E,
B4,
58,
1A,
4C,
74,
6B,
14,
A7,
AF,
3F,
D0,
62,
A5,
B6,
65,
F3,
87,
11,
3E,
C4,
55,
7A,
78,
25,
59,
D8,
D3,
1A,
08,
92,
32,
B3,
0C,
13,
5F,
A0,
8D,
A7,
C8,
42,
28,
BB,
29,
0C,
3A,
7D,
E2,
64,
5D,
71,
4F,
0E,
73,
F5,
6C,
71,
7A,
23,
72,
8E,
D5,
37,
32,
89,
03,
35,
F7,
B2,
72,
B8,
22,
4F,
89,
A0,
34,
C6,
08,
19,
6B,
E1,
1E,
E7,
37,
5C,
11,
F1,
8A,
A4,
20,
18,
47,
68,
24,
27,
A1,
44,
8A,
4C,
68,
A1,
C9,
7D,
D1,
5E,
60,
A6,
6E,
57,
FA,
2D,
48,
28,
E0,
77,
16,
68,
B0,
0A,
A8,
83,
5E,
CF,
4D,
C9,
F7,
9B,
EE,
03,
AC,
8E,
BB,
21,
2D,
F3,
F9,
4C,
7A,
C7,
0E,
C7,
29,
89,
52,
2C,
C9,
1D,
03,
C0,
6E,
F4,
E5,
8A,
EC,
86,
5D,
3B,
C3,
8F,
DA,
01,
54,
BC,
6E,
72,
77,
79,
CA,
00,
0C,
20,
17,
C8,
BB,
B0,
E0,
D4,
EE,
76,
87,
46,
84,
92,
C2,
F0,
42,
5D,
68,
7D,
7A,
8D,
A8,
3B,
A9,
C9,
59,
97,
0A,
36,
C9,
D3,
21,
EF,
52,
F0,
E8,
16,
F1,
C0,
52,
8D,
83,
D8,
5D,
B5,
9B,
79,
C4,
12,
CE,
EA,
8A,
9A,
84,
45,
92,
C1,
4B,
84,
3F,
76,
3D,
17,
BD,
8D,
9B,
4B,
2A,
43,
CC,
3B,
D2,
95,
AF,
62,
39,
1E,
28,
76,
30,
8E,
CF,
98,
EC,
98,
0F,
A7,
1C,
65,
A5,
42,
09,
2B,
9D,
7A,
FC,
BB,
7E,
4C,
36,
0F,
21,
53,
22,
4B,
52,
58,
8E,
B8,
4E,
FD,
7C,
E8,
13,
A4,
AB,
71,
46,
32,
56,
DF,
06,
F5,
75,
58,
61,
CF,
FE,
1A,
F0,
AB,
56,
14,
FD,
B0,
5B,
C3,
00,
4F,
4F,
2B,
5C,
C6,
09,
88,
20,
6D,
F8,
81,
9E,
59,
82,
2A,
A8,
91,
14,
78,
23,
5E,
18,
EC,
C4,
6B,
72,
7A,
B2,
5D,
02,
EE,
7E,
40,
C7,
7D,
C4,
8E,
2A,
2E,
87,
25,
0C,
84,
BD,
25,
32,
5C,
BE,
BC,
48,
04,
F3,
BE,
A5,
06,
1D,
D9,
6E,
AF,
9E,
7D,
8F,
8A,
26,
15,
18,
28,
1E,
8E,
59,
42,
BC,
A9,
16,
B4,
17,
49,
49,
D7,
BD,
3E,
67,
22,
E8,
2B,
26,
68,
5D,
F7,
C7,
15,
B2,
30,
43,
3F,
44,
57,
66,
43,
0B,
30,
24,
9A,
F0,
F4,
67,
85,
C4,
C7,
B5,
48,
DD,
5D,
4A,
68,
5F,
3D,
33,
4E,
0F,
9C,
D2,
45,
CF,
A5,
E0,
84,
CA,
7B,
0C,
B8,
CC,
35,
58,
2D,
D8,
9F,
59,
36,
A9,
A6,
24,
F1,
76,
BD,
E5,
EB,
E9,
7A,
EB,
C5,
12,
0C,
0F,
3D,
C9,
13,
14,
5A,
05,
CB,
B2,
D9,
A4,
68,
BF,
AA,
A8,
25,
53,
29,
33,
8C,
F5,
99,
8C,
CA,
10,
CB,
83,
FC,
CD,
76,
C8,
D1,
03,
76,
16,
41,
F8,
64,
9A,
0B,
F6,
59,
7D,
E8,
53,
CD,
83,
0D,
22,
F1,
AE,
BE,
CE,
DF,
49,
6E,
B6,
71,
DD,
DE,
46,
49,
3C,
6C,
A3,
0A,
06,
75,
A1,
A9,
7F,
6F,
49,
57,
E7,
C0,
07,
2B,
27,
9C,
88,
65,
84,
EB,
DD,
5B,
0B,
62,
39,
CF,
41,
67,
60,
0E,
28,
5C,
D5,
9C,
6A,
E8,
5B,
43,
AD,
76,
A4,
45,
01,
A6,
3E,
AD,
CB,
22,
0E,
66,
F1,
1F,
1C,
5A,
4E,
DE,
7B,
64,
2D,
20,
C1,
E2,
F2,
28,
0E,
60,
0C,
11,
56,
44,
F3,
04,
21,
72,
92,
FC,
84,
72,
37,
02,
F3,
4B,
3F,
24,
CD,
34,
6E,
DB,
E1,
56,
F6,
1A,
8E,
F6,
CB,
54,
00,
FA,
1D,
2C,
AF,
C7,
2A,
6F,
57,
6E,
FC,
BE,
21,
09,
7D,
58,
9C,
91,
01,
9F,
C8,
1E,
53,
A5,
D8,
D7,
0C,
2D,
25,
A5,
28,
90,
6C,
6A,
36,
47,
6E,
58,
58,
F7,
17,
93,
6A,
D7,
63,
4A,
01,
56,
20,
47,
9A,
58,
FA,
3A,
B3,
67,
D1,
36,
38,
09,
C1,
FB,
FA,
EE,
71,
94,
EA,
12,
27,
73,
82,
24,
46,
DD,
B2,
7F,
6E,
AD,
46,
9C,
EE,
E1,
0B,
21,
C3,
A0,
CD,
D6,
73,
FB,
61,
76,
68,
45,
FB,
EE,
1E,
AE;