memory_initialization_radix=16;
memory_initialization_vector=
5A,
28,
BA,
C2,
43,
7E,
57,
2B,
CA,
E2,
23,
32,
DC,
2A,
30,
3E,
54,
03,
CE,
74,
8C,
89,
75,
18,
FC,
C7,
3F,
FB,
6C,
88,
8E,
31,
E1,
C1,
4E,
BF,
15,
1F,
C6,
48,
4E,
50,
02,
73,
5A,
0F,
A0,
71,
DE,
0F,
51,
AF,
79,
4A,
05,
98,
29,
23,
EB,
79,
9B,
19,
6C,
2C,
2D,
F9,
DB,
BB,
8C,
E9,
DA,
64,
0C,
B7,
91,
AF,
D1,
1F,
EC,
F0,
78,
52,
42,
4F,
2C,
61,
98,
F3,
8C,
C1,
A5,
CA,
E4,
DD,
46,
CE,
64,
99,
66,
4E,
F9,
46,
7D,
45,
C6,
8E,
3A,
8C,
EC,
47,
19,
ED,
A8,
99,
4E,
87,
6B,
37,
4C,
91,
45,
50,
95,
AF,
B3,
88,
0B,
71,
50,
AF,
A7,
91,
4B,
E1,
C1,
55,
9D,
B2,
A8,
E9,
31,
E8,
2E,
6A,
0D,
E5,
22,
D5,
E6,
82,
F0,
19,
B7,
0A,
F7,
EA,
D0,
DA,
DB,
87,
BD,
EE,
7F,
5A,
71,
CF,
7A,
CB,
5A,
27,
44,
A9,
E7,
E1,
41,
BE,
F4,
F9,
91,
27,
8E,
60,
0A,
8E,
52,
EC,
D5,
EA,
AF,
96,
28,
D5,
DC,
77,
AE,
82,
5C,
9C,
44,
4B,
F0,
C0,
56,
DE,
F8,
F9,
3B,
18,
08,
B1,
93,
BA,
09,
59,
4B,
0C,
4F,
0E,
AC,
89,
D3,
EE,
32,
5A,
3C,
25,
FB,
96,
2A,
74,
2D,
04,
42,
85,
92,
02,
BD,
A9,
E2,
EA,
71,
C1,
B2,
E4,
55,
DF,
DF,
E5,
02,
D4,
B7,
E9,
AD,
E7,
1E,
11,
0E,
E4,
7B,
EF,
E4,
40,
0D,
0B,
86,
A7,
EE,
AF,
AE,
06,
A2,
F6,
3D,
96,
F4,
C2,
0B,
7B,
0D,
55,
59,
52,
9F,
76,
29,
7D,
50,
09,
79,
49,
91,
6B,
97,
2C,
2F,
3E,
DF,
E0,
53,
3B,
FF,
68,
ED,
57,
3B,
AD,
AF,
1C,
69,
08,
20,
C1,
33,
83,
69,
91,
0D,
50,
D0,
7C,
C5,
A8,
EF,
0A,
44,
3D,
A8,
C0,
EA,
F8,
5E,
67,
57,
60,
05,
2F,
C4,
37,
C9,
B2,
1A,
A2,
8F,
36,
EE,
BF,
DD,
96,
F1,
83,
DB,
04,
D6,
91,
5B,
0D,
73,
A7,
1E,
5D,
3B,
44,
3F,
C1,
7C,
7C,
3C,
6E,
6F,
D9,
38,
7A,
EA,
87,
72,
68,
74,
8F,
3B,
01,
AA,
49,
AA,
00,
C7,
0E,
3D,
E0,
33,
27,
7B,
98,
A4,
70,
59,
19,
FD,
1C,
BF,
91,
3D,
51,
8D,
40,
50,
46,
43,
8E,
E8,
92,
A9,
12,
EC,
19,
02,
B6,
BB,
75,
99,
49,
9D,
83,
5B,
09,
5E,
1A,
18,
47,
18,
C5,
73,
FA,
0B,
55,
1D,
DE,
24,
73,
89,
9E,
A9,
58,
A0,
7B,
73,
E1,
27,
E5,
8D,
43,
3E,
3F,
CA,
C2,
56,
18,
8F,
98,
15,
F9,
C8,
46,
A3,
40,
08,
FF,
EA,
37,
92,
CC,
86,
8E,
DD,
96,
28,
BC,
3D,
F5,
78,
40,
61,
6A,
A0,
DC,
A5,
DD,
98,
F8,
4F,
BB,
C9,
A2,
85,
22,
63,
8B,
F8,
EB,
55,
5C,
09,
C2,
94,
7B,
16,
B2,
45,
DB,
98,
62,
E2,
E1,
D7,
39,
62,
D1,
69,
07,
FC,
EF,
D1,
7B,
D1,
BD,
83,
43,
42,
13,
53,
7A,
9F,
41,
16,
F7,
47,
C2,
F2,
AE,
4F,
4C,
8C,
E7,
C8,
B4,
CC,
F1,
3B,
C6,
4E,
9C,
83,
31,
F6,
35,
6C,
CA,
52,
2D,
56,
4A,
9E,
25,
51,
A7,
EA,
B2,
B1,
2C,
08,
7F,
2C,
C8,
12,
62,
1C,
DC,
31,
84,
70,
85,
17,
D5,
4A,
38,
6E,
1E,
15,
1D,
B5,
AF,
8D,
74,
44,
55,
96,
A9,
8C,
50,
26,
EB,
F5,
79,
AB,
57,
6B,
85,
1C,
56,
10,
6A,
A8,
78,
87,
BD,
3B,
A4,
04,
3C,
41,
E3,
A3,
61,
A7,
32,
B1,
97,
FC,
7A,
A9,
53,
66,
07,
73,
8F,
57,
36,
59,
B0,
22,
08,
BE,
64,
2D,
27,
2E,
C1,
1E,
03,
C1,
67,
27,
33,
C9,
B3,
4B,
C6,
D4,
37,
A0,
2E,
20,
C3,
C5,
1D,
97,
FC,
51,
85,
E2,
0B,
35,
BC,
A4,
E5,
40,
93,
73,
E0,
42,
B6,
E3,
95,
48,
4A,
CF,
94,
E8,
73,
52,
DB,
F1,
22,
D3,
C8,
0A,
EF,
9B,
2E,
B9,
BF,
9C,
B1,
23,
1D,
14,
71,
19,
2F,
A5,
19,
3E,
44,
A0,
11,
BB,
C2,
37,
24,
4D,
FF,
5A,
46,
5C,
59,
9A,
68,
F0,
00,
74,
D5,
AA,
CF,
7D,
66,
47,
A6,
D1,
D4,
6E,
F9,
CF,
66,
3B,
D6,
35,
7A,
70,
84,
CB,
2F,
F7,
06,
14,
05,
6B,
A3,
85,
CB,
DE,
41,
B7,
AE,
22,
2A,
BA,
02,
2B,
DD,
83,
32,
DB,
04,
6B,
D4,
A0,
B9,
90,
A1,
85,
E4,
3A,
FB,
15,
35,
05,
4F,
02,
2B,
77,
37,
E2,
2E,
67,
C1,
00,
B2,
07,
D2,
26,
DC,
A6,
DE,
A5,
E4,
1C,
0D,
3C,
C6,
F4,
B4,
BD,
F6,
EE,
F3,
26,
AD,
D5,
D0,
AF,
00,
50,
BA,
00,
3F,
D8,
D4,
8B,
90,
D9,
10,
5F,
12,
5C,
F1,
88,
19,
60,
CB,
94,
68,
45,
6F,
2E,
3C,
04,
99,
7A,
05,
88,
E4,
32,
8B,
73,
2E,
E8,
6A,
4A,
5B,
E8,
C7,
72,
79,
C3,
3D,
6B,
6B,
68,
46,
B3,
60,
6B,
A9,
38,
66,
75,
49,
84,
AF,
FD,
BC,
01,
D9,
A0,
4A,
7B,
DD,
B9,
3A,
82,
B1,
73,
EB,
79,
0A,
C6,
03,
31,
2B,
7C,
96,
00,
43,
51,
EF,
68,
B0,
CE,
E9,
58,
9C,
B9,
2E,
17,
74,
EA,
56,
65,
7D,
91,
5F,
45,
B6,
C7,
54,
0B,
2D,
30,
AD,
86,
59,
09,
BE,
FC,
71,
C5,
B4,
C8,
06,
E3,
14,
F0,
20,
F8,
98,
77,
7D,
FD,
C1,
AB,
56,
49,
43,
A8,
77,
03,
F7,
73,
75,
8C,
3E,
06,
97,
1C,
F1,
60,
5B,
95,
6E,
E2,
BE,
E7,
0F,
7D,
2B,
E1,
A7,
92,
57,
D8,
8D,
89,
CA,
E9,
D5,
11,
13,
B9,
A9,
CB,
03,
44,
C7,
E8,
29,
93,
28,
A2,
16,
A8,
C0,
35,
27,
36,
1D,
12,
65,
98,
43,
9A,
21,
FA,
0C,
BD,
5F,
C9,
55,
88,
96,
07,
D4,
71,
DC,
78,
51,
C0,
76,
BB,
99,
73,
B5,
BF,
A5,
DB,
84,
71,
E5,
09,
B4,
54,
16,
7E,
B0,
4F,
5D,
01,
7B,
1D,
B5,
3D,
C1,
B4,
58,
F8,
5B,
97,
5D,
AB,
30,
29,
99,
35,
54,
F5,
57,
B4,
ED,
46,
3E,
1C,
32,
E6,
33,
CD,
AB,
E4,
0D,
FF,
EB,
95,
94,
06,
C2,
7A,
A0,
46,
82,
4D,
68,
1B,
BE,
AC,
6C,
D7,
5B,
FD,
6C,
6A,
AA,
B4,
DE,
CB,
4B,
5D,
4C,
DA,
A7,
F8,
CC,
90,
19,
97,
47,
AA,
07,
22,
51,
E8,
EA,
44,
A3,
CC,
6C,
1F,
4B,
88,
DD,
B3,
43,
2D,
94,
AE,
2B,
3E,
2B,
42,
D1,
F4,
7B,
46,
71,
FB,
76,
BD,
D4,
F3,
1C,
03,
48,
F3,
76,
10,
C5,
BD,
F4,
B6,
3C,
FE,
43,
24,
EC,
04,
06,
AB,
13,
B4,
AB,
85,
1F,
83,
26,
D2,
61,
91,
F1,
41,
E9,
3F,
E2,
DF,
A4,
53,
55,
BA,
21,
0E,
89,
ED,
17,
07,
48,
67,
A6,
C6,
08,
0D,
B0,
1A,
33,
FA,
B0,
32,
5F,
51,
2F,
C5,
BB,
DB,
FD,
EF,
53,
FE,
C4,
22,
0A,
08,
49,
68,
36,
75,
7C,
A9,
94,
CE,
6C,
24,
9F,
5A,
2B,
97,
A6,
AD,
AC,
84,
C0,
69,
72,
18,
4B,
8B,
B5,
67,
F4,
7C,
4B,
36,
DB,
AA,
54,
B9,
6F,
E9,
0F,
00,
9B,
D9,
8E,
29,
42,
F2,
EC,
EC,
89,
82,
DA,
3A,
A9,
9D,
63,
B3,
1D,
B2,
F0,
4F,
26,
1A,
BE,
4F,
8F,
95,
18,
E0,
87,
D4,
03,
8A,
A9,
7C,
E7,
F2,
FD,
98,
6D,
5A,
78,
E8,
75,
03,
F2,
E1,
65,
AE,
B9,
9C,
DC,
45,
63,
0A,
5E,
85,
1D,
21,
09,
57,
67,
41,
93,
BF,
62,
65,
4C,
A0,
B3,
F9,
BF,
FA,
8C,
6F,
A6,
69,
AA,
C1,
0E,
90,
DA,
E2,
3D,
C1,
42,
E2,
1F,
B7,
DF,
C0,
A7,
FC,
1F,
AB,
90,
96,
9D,
89,
87,
05,
F2,
66,
0C,
CF,
DD,
03,
66,
2E,
55,
D8,
20,
74,
95,
49,
C7,
C5,
C6,
DE,
A0,
36,
BF,
0C,
9F,
7C,
11,
77,
3E,
64,
56,
BF,
B1,
A7,
D0,
29,
74,
30,
99,
D6,
5B,
AE,
B5,
5F,
5F,
ED,
D9,
77,
9B,
25,
6E,
7C,
FE,
7C,
47,
AD,
7C,
20,
E6,
16,
5A,
3A,
40,
6D,
6E,
86,
26,
C3,
6B,
13,
44,
18,
EA,
73,
BA,
E8,
A4,
A4,
AA,
9B,
E5,
5B,
B3,
51,
4B,
8A,
1D,
8D,
B3,
7E,
62,
D0,
E8,
D9,
C7,
6E,
8E,
B4,
F4,
A7,
B6,
24,
04,
55,
0F,
72,
73,
0A,
AE,
DB,
CB,
5A,
E1,
B1,
23,
8D,
84,
27,
A6,
B6,
54,
AC,
E8,
FB,
FB,
DF,
73,
A4,
C6,
61,
F1,
F7,
F8,
23,
7C,
EA,
15,
38,
26,
31,
C2,
09,
40,
16,
31,
4C,
AF,
B8,
24,
14,
EE,
C3,
E7,
7F,
93,
9F,
4F,
77,
9A,
4F,
2C,
69,
1B,
A7,
CC,
99,
ED,
74,
C1,
E0,
D3,
39,
2C,
08,
22,
63,
A9,
2B,
D8,
A3,
31,
7F,
3E,
52,
47,
E3,
4D,
E2,
96,
9F,
6A,
2E,
37,
9B,
EC,
ED,
A1,
C4,
DA,
52,
65,
D8,
76,
10,
34,
14,
65,
74,
B4,
D3,
B7,
AD,
30,
6D,
F2,
EE,
A1,
BF,
2A,
3A,
D1,
FD,
D6,
F2,
C3,
1B,
2E,
CB,
D9,
A8,
F1,
0B,
09,
99,
07,
9A,
BA,
CE,
72,
66,
25,
B7,
C1,
9E,
D5,
D4,
EF,
0E,
8B,
C7,
6E,
23,
08,
82,
79,
E1,
99,
0A,
55,
BB,
41,
D9,
A4,
2C,
C7,
1D,
5B,
84,
2C,
33,
11,
DF,
8B,
A7,
BB,
5C,
D3,
32,
55,
17,
BB,
DD,
04,
70,
21,
25,
35,
1F,
C9,
9B,
8F,
C9,
0F,
AF,
E1,
9A,
85,
CF,
10,
E6,
DC,
AE,
A0,
77,
05,
D2,
44,
B9,
BA,
8B,
5C,
70,
F7,
DE,
7B,
52,
41,
B7,
35,
9E,
8B,
5F,
BF,
AE,
F6,
EE,
40,
83,
8D,
5D,
AF,
25,
E2,
E6,
9B,
B6,
01,
06,
CC,
C4,
08,
4F,
5C,
C1,
CA,
A1,
D8,
97,
CF,
97,
C8,
D5,
EA,
9A,
C7,
FC,
2C,
C8,
C2,
73,
5D,
F7,
39,
5E,
48,
AA,
8C,
3A,
03,
E5,
4D,
DD,
FE,
48,
FE,
30,
26,
44,
6E,
FE,
E6,
4D,
4C,
88,
D8,
E8,
93,
B0,
F4,
89,
88,
FD,
C5,
0F,
F9,
FA,
F8,
CF,
23,
29,
BA,
89,
CA,
61,
C9,
C6,
AA,
83,
A7,
F9,
FF,
2C,
19,
96,
C0,
B3,
F3,
02,
6E,
70,
05,
DC,
BC,
ED,
BA,
E6,
54,
79,
5E,
A2,
62,
1D,
E8,
0A,
EC,
D6,
2C,
8A,
D5,
5A,
F5,
89,
12,
09,
82,
CE,
3E,
C7,
0E,
6C,
8A,
03,
AE,
38,
A3,
17,
CD,
CB,
F3,
DC,
1C,
71,
53,
7C,
4C,
2E,
0B,
63,
A4,
9C,
EE,
C7,
AF,
C4,
F5,
B0,
76,
51,
17,
48,
3E,
FB,
3E,
C5,
D0,
FE,
C9,
12,
CD,
65,
46,
90,
9F,
D3,
D3,
FE,
A2,
DF,
ED,
DE,
C5,
05,
73,
33,
11,
A3,
FF,
6E,
12,
0D,
2F,
3D,
42,
8F,
5E,
7B,
C9,
36,
BC,
ED,
E0,
07,
C9,
D7,
A5,
96,
E5,
20,
BF,
60,
FD,
DD,
17,
1A,
FB,
D4,
6E,
D5,
0D,
8C,
B1,
21,
5F,
55,
C4,
E8,
ED,
CE,
D1,
D7,
ED,
7B,
4F,
A6,
F9,
22,
DE,
CA,
DA,
6C,
51,
42,
65,
32,
AF,
88,
66,
9A,
AD,
5D,
50,
33,
4E,
ED,
50,
34,
14,
0F,
98,
D6,
2E,
A0,
A4,
E6,
E4,
D3,
C9,
54,
95,
16,
8A,
EA,
F3,
04,
E9,
52,
53,
F4,
66,
00,
30,
3F,
B4,
9A,
D9,
03,
D2,
B6,
BA,
75,
7C,
3E,
04,
9D,
6F,
AB,
6E,
7F,
5C,
2A,
9B,
BA,
F3,
A4,
B5,
6C,
F4,
E4,
50,
58,
64,
93,
47,
77,
E0,
5E,
AC,
2A,
2F,
B5,
E0,
94,
37,
47,
CD,
FC,
88,
3D,
B9,
F0,
37,
76,
A1,
97,
2A,
8F,
AB,
29,
61,
B5,
08,
E7,
28,
D0,
AB,
AA,
C7,
E3,
DE,
8B,
A5,
6D,
33,
A6,
B3,
75,
E6,
92,
B6,
88,
EF,
51,
3D,
70,
49,
DF,
02,
2C,
6D,
3C,
BC,
F1,
E1,
51,
D8,
68,
01,
5F,
D9,
7C,
24,
C6,
FC,
38,
19,
2C,
B6,
6D,
D7,
54,
29,
B9,
24,
21,
12,
51,
DC,
BB,
CF,
27,
C0,
42,
24,
A2,
16,
79,
EC,
6E,
3D,
08,
84,
A1,
58,
2F,
0E,
27,
94,
08,
09,
04,
0C,
90,
2B,
47,
DE,
FC,
93,
41,
48,
8A,
4D,
66,
5E,
E3,
6B,
D3,
D2,
AC,
D6,
84,
2B,
6F,
E1,
EB,
F4,
D5,
52,
2E,
4D,
78,
31,
CC,
E4,
BC,
01,
5A,
5F,
43,
27,
8A,
37,
1E,
A5,
34,
4B,
A5,
3C,
A0,
92,
42,
9B,
2F,
DC,
C4,
82,
68,
B0,
04,
69,
F0,
93,
A3,
C2,
3E,
75,
55,
65,
EE,
74,
63,
DC,
BC,
24,
2C,
95,
51,
08,
3E,
64,
32,
95,
CB,
B1,
8D,
A9,
7A,
64,
2C,
68,
44,
27,
81,
68,
7A,
D8,
30,
99,
7E,
F7,
38,
AA,
7A,
EF,
91,
AA,
17,
BB,
7E,
26,
45,
E0,
0A,
C9,
FA,
36,
09,
DE,
F6,
78,
6A,
BA,
09,
1C,
8F,
8C,
FD,
4D,
05,
61,
87,
3A,
D9,
5A,
2E,
35,
BB,
94,
6F,
C7,
E4,
1E,
26,
3C,
9C,
28,
52,
9D,
8B,
C6,
A1,
CF,
DD,
A4,
13,
18,
A9,
75,
26,
BB,
95,
73,
6D,
FD,
05,
F9,
BA,
9B,
A9,
74,
90,
E7,
38,
6A,
71,
BA,
C8,
44,
72,
0A,
A7,
CE,
00,
1E,
3E,
DF,
13,
1C,
6C,
38,
26,
71,
27,
9E,
48,
05,
13,
48,
30,
B5,
48,
C1,
45,
5E,
67,
F9,
47,
F5,
D2,
95,
4C,
6A,
3D,
78,
68,
6F,
DE,
DC,
65,
40,
FB,
55,
1A,
D8,
D1,
0B,
39,
23,
1F,
FC,
A6,
50,
FE,
6C,
B4,
A4,
67,
9A,
E3,
07,
21,
FB,
BB,
61,
C4,
FF,
0E,
B7,
D2,
E0,
DB,
EF,
0C,
15,
1E,
7B,
7C,
E4,
03,
17,
61,
A5,
E3,
31,
DB,
8B,
03,
48,
EC,
D5,
B7,
75,
B6,
B9,
B8,
D2,
40,
A5,
2A,
C2,
D4,
6C,
D2,
44,
BE,
C3,
60,
58,
5B,
C1,
A6,
00,
CB,
B3,
09,
42,
22,
34,
B1,
92,
AD,
A4,
06,
41,
DF,
61,
91,
D1,
2B,
F4,
8D,
46,
5D,
82,
BA,
C1,
62,
EA,
45,
7A,
46,
9E,
8B,
1E,
96,
AC,
E9,
E9,
F5,
8F,
5A,
7E,
F1,
FD,
62,
1B,
F4,
D7,
4D,
22,
2C,
7D,
A5,
A0,
3A,
23,
B2,
C1,
8D,
51,
21,
90,
9B,
46,
A5,
1C,
DF,
4C,
08,
84,
E6,
A5,
45,
4E,
C8,
A7,
46,
C6,
AE,
BB,
88,
49,
B2,
3F,
31,
F1,
39,
CE,
DB,
C7,
26,
E8,
0B,
00,
5F,
BA,
B0,
EB,
C8,
21,
26,
F2,
5D,
4C,
74,
0E,
BE,
05,
D5,
C7,
52,
FB,
AD,
B2,
C8,
9E,
73,
2F,
16,
0E,
4A,
76,
EE,
26,
34,
2B,
9F,
C0,
FB,
CE,
49,
90,
41,
C9,
B0,
8D,
EA,
78,
30,
77,
2E,
EE,
26,
AB,
D7,
46,
C6,
91,
10,
00,
F8,
EC,
F9,
E3,
AA,
24,
FA,
9E,
A5,
5D,
D7,
FB,
F3,
10,
8A,
4D,
87,
D2,
FF,
4D,
B2,
8C,
83,
47,
B8,
6E,
53,
96,
1E,
88,
1C,
35,
30,
6D,
62,
60,
50,
1A,
99,
37,
9B,
14,
B0,
35,
63,
7D,
62,
33,
55,
7C,
A7,
D8,
A5,
D4,
3A,
7B,
97,
A7,
10,
BD,
BD,
2B,
A9,
FE,
5D,
6A,
44,
15,
4E,
E7,
DB,
5B,
98,
8C,
3E,
D6,
1F,
6A,
85,
F6,
DF,
E9,
AC,
F3,
17,
4E,
6A,
66,
BC,
FD,
1C,
6D,
FD,
61,
B0,
ED,
D3,
FD,
1E,
9D,
73,
52,
F5,
6B,
59,
AF,
87,
48,
BD,
86,
8A,
A1,
19,
A4,
F4,
F5,
A8,
4F,
88,
C8,
9C,
1F,
D5,
CE,
16,
D7,
57,
5F,
22,
1D,
B6,
AA,
3F,
FF,
DD,
8A,
5C,
E3,
AD,
A9,
EA,
2F,
13,
9E,
40,
C8,
44,
20,
55,
2A,
4C,
79,
D9,
6E,
27,
42,
62,
A5,
82,
B5,
4F,
32,
E8,
BA,
4F,
7A,
76,
5E,
AE,
A6,
03,
66,
C9,
19,
A0,
3D,
35,
44,
73,
99,
73,
E7,
54,
22,
EC,
6A,
BD,
97,
66,
54,
E2,
CB,
FF,
38,
1C,
32,
E8,
FF,
69,
E9,
D0,
41,
67,
37,
B1,
31,
AD,
F4,
D8,
A5,
6B,
0B,
33,
B5,
31,
7F,
28,
36,
7A,
44,
E0,
2E,
5A,
89,
21,
6C,
50,
9C,
ED,
F9,
E4,
D5,
1C,
F5,
79,
5E,
6E,
B9,
F3,
C9,
62,
D1,
78,
57,
43,
66,
88,
D0,
6C,
FC,
0E,
53,
15,
6A,
DA,
4A,
78,
6F,
18,
B3,
D8,
21,
C4,
E7,
71,
46,
B5,
A1,
70,
F8,
3D,
29,
FB,
8F,
5B,
5F,
F7,
EE,
7B,
58,
03,
35,
3E,
DA,
18,
E1,
B0,
DC,
37,
9C,
F6,
4B,
0D,
87,
B5,
F5,
2A,
38,
54,
B8,
58,
08,
21,
4C,
6D,
22,
20,
CF,
7E,
5C,
12,
E3,
D5,
BA,
AE,
2E,
7E,
66,
7B,
6C,
DD,
B7,
D6,
41,
B4,
51,
FF,
B4,
17,
A9,
64,
CC,
01,
AE,
07,
DE,
50,
05,
64,
A3,
C4,
6B,
38,
10,
09,
F7,
74,
86,
04,
61,
7B,
66,
BA,
8F,
F7,
44,
CA,
EF,
64,
EA,
41,
10,
E3,
32,
78,
95,
56,
24,
D9,
D0,
B1,
CF,
93,
56,
75,
58,
0A,
4D,
F7,
79,
D9,
F7,
1D,
AC,
CD,
72,
10,
D3,
7A,
98,
13,
2B,
B7,
B4,
09,
E0,
10,
48,
98,
DA,
B9,
3E,
31,
72,
26,
A6,
3C,
5D,
5E,
6B,
7C,
96,
94,
E9,
01,
22,
68,
76,
F4,
DD,
76,
79,
BF,
F9,
7A,
04,
04,
F5,
A4,
EE,
06,
58,
C7,
52,
69,
A4,
C4,
3A,
E8,
72,
52,
FC,
BE,
2F,
8E,
3B,
4A,
9E,
83,
5A,
2A,
25,
F1,
7E,
28,
18,
BA,
26,
7E,
79,
97,
1E,
C7,
EE,
15,
73,
D3,
5F,
01,
B2,
05,
7D,
70,
3C,
1E,
71,
13,
7A,
96,
88,
C5,
41,
3D,
04,
15,
35,
72,
67,
68,
7A,
CB,
2C,
FA,
D7,
73,
9C,
99,
13,
1A,
A1,
9A,
45,
01,
4A,
98,
63,
3B,
AF,
54,
C0,
09,
8E,
4A,
AD,
89,
4A,
F9,
24,
DC,
DC,
BE,
B1,
34,
D1,
07,
48,
E3,
FA,
E6,
1E,
81,
36,
D0,
8B,
B1,
6C,
88,
4B,
5E,
90,
56,
31,
BF,
35,
89,
E0,
F7,
62,
99,
45,
D4,
50,
B2,
BB,
19,
A5,
13,
68,
A7,
2A,
45,
BA,
8D,
00,
F6,
ED,
0C,
92,
FD,
54,
09,
E4,
06,
B4,
A1,
47,
83,
3B,
4C,
6F,
50,
1D,
18,
A7,
FB,
E9,
B0,
95,
C4,
A6,
D1,
06,
AE,
CC,
A1,
1C,
E9,
DD,
0D,
31,
77,
10,
BA,
49,
32,
CC,
CA,
D9,
3F,
6E,
3E,
56,
85,
B2,
1D,
9E,
72,
C9,
0D,
D7,
38,
B9,
DF,
EC,
41,
90,
83,
2A,
CB,
FC,
F0,
E0,
F4,
E5,
E8,
4D,
EF,
AD,
46,
89,
15,
B5,
0A,
A5,
47,
5F,
97,
96,
61,
F1,
B0,
56,
65,
5B,
BC,
67,
31,
6E,
17,
FF,
79,
64,
43,
90,
DA,
23,
FA,
46,
64,
5E,
23,
EA,
D3,
EC,
5E,
AB,
87,
25,
AD,
B7,
44,
91,
9F,
EC,
F4,
6E,
4D,
DA,
AE,
7A,
DC,
95,
34,
AC,
25,
CF,
42,
00,
49,
81,
F3,
96,
EC,
96,
1A,
01,
90,
1B,
74,
D6,
A5,
D9,
21,
7E,
00,
8A,
13,
48,
FF,
D3,
9C,
DB,
A9,
91,
4E,
19,
B1,
52,
E4,
DA,
45,
38,
9A,
CC,
4D,
37,
E7,
EC,
D8,
17,
D5,
D0,
96,
D8,
F9,
15,
B8,
54,
FF,
83,
AB,
83,
5F,
2A,
CB,
E4,
04,
BB,
22,
70,
AF,
32,
5E,
BB,
3B,
91,
A0,
7A,
AC,
A6,
86,
51,
15,
82,
4E,
E6,
C3,
5F,
15,
11,
D6,
43,
50,
78,
AD,
72,
74,
78,
37,
09,
F5,
9D,
DC,
DF,
CA,
4B,
2D,
88,
06,
B0,
25,
3D,
DE,
B4,
43,
A3,
33,
86,
F6,
A2,
AC,
E2,
44,
D3,
84,
7D,
91,
6C,
EB,
95,
B0,
FE,
61,
44,
37,
3B,
99,
70,
B5,
37,
D9,
39,
CF,
67,
5C,
08,
ED,
61,
66,
96,
38,
8E,
7E,
ED,
0D,
C9,
5F,
2A,
A7,
12,
5A,
68,
8B,
1F,
78,
0A,
30,
AF,
FE,
C9,
62,
3A,
17,
E4,
BE,
F0,
15,
23,
AB,
5D,
5D,
F6,
3C,
B1,
D9,
A8,
AE,
06,
42,
F2,
18,
2C,
6F,
0E,
87,
06,
F5,
B7,
3F,
99,
C2,
79,
4C,
7D,
0A,
DB,
DD,
34,
54,
FC,
D0,
19,
1D,
D9,
35,
DD,
BB,
A4,
B6,
FD,
07,
33,
8A,
9E,
42,
83,
C5,
C8,
2D,
F8,
38,
E9,
07,
F2,
59,
37,
1E,
17,
82,
18,
F1,
ED,
36,
77,
C6,
0D,
D5,
0C,
E2,
B3,
D8,
22,
56,
40,
54,
17,
34,
DD,
A1,
88,
09,
09,
A1,
E9,
03,
9E,
5E,
25,
A3,
D4,
5B,
E0,
C4,
1A,
D4,
7D,
6E,
3C,
6E,
C7,
5F,
66,
C5,
41,
F4,
B4,
EC,
3B,
11,
C3,
DC,
49,
AE,
83,
7E,
51,
31,
1D,
9E,
37,
A8,
87,
7A,
13,
5B,
F3,
F4,
65,
2D,
50,
D9,
0B,
B0,
8A,
F0,
70,
53,
73,
17,
64,
71,
1A,
56,
62,
F3,
B2,
27,
41,
1B,
45,
BC,
FC,
3F,
DA,
4D,
1E,
A6,
B3,
1D,
E2,
09,
27,
CB,
01,
82,
C2,
51,
3A,
50,
54,
A7,
CE,
7F,
BD,
AE,
33,
AC,
8C,
00,
C7,
93,
26,
D8,
F5,
55,
16,
1C,
59,
FA,
41,
0C,
6B,
23,
9B,
6C,
08,
E0,
70,
56,
39,
E1,
47,
10,
95,
83,
D1,
22,
9C,
39,
37,
B9,
78,
06,
8A,
87,
B7,
50,
F8,
02,
72,
E1,
00,
A6,
A0,
E2,
B8,
D4,
53,
F0,
98,
25,
46,
D1,
CC,
48,
72,
28,
13,
91,
52,
CB,
06,
C3,
A1,
8D,
55,
BD,
8B,
E6,
1A,
72,
94,
75,
BB,
03,
31,
21,
94,
4E,
06,
C4,
90,
61,
B5,
F0,
11,
19,
70,
C8,
5E,
CD,
65,
CE,
E3,
68,
36,
CF,
85,
F8,
35,
72,
83,
41,
9A,
DE,
4C,
AD,
E8,
7D,
65,
15,
E9,
18,
8A,
5C,
1E,
69,
77,
C9,
85,
D7,
F8,
F2,
C6,
BC,
01,
EE,
34,
27,
26,
41,
BC,
3F,
4C,
7A,
67,
9F,
EC,
8D,
86,
1B,
F7,
90,
03,
E2,
E4,
01,
44,
B7,
6D,
B2,
A1,
85,
1D,
3B,
AF,
2F,
DE,
33,
06,
E1,
09,
3B,
BF,
B6,
7E,
6D,
38,
69,
88,
B7,
16,
05,
A1,
21,
AC,
FD,
AE,
2E,
87,
1C,
B3,
AD,
60,
B6,
E0,
34,
42,
63,
F4,
3C,
B9,
A4,
3A,
07,
F2,
31,
B3,
58,
BC,
CA,
82,
13,
46,
D1,
F3,
9D,
E8,
AC,
3A,
15,
9B,
E4,
7A,
67,
A6,
6D,
5D,
C9,
05,
DC,
F0,
94,
0A,
C2,
65,
85,
08,
A1,
F9,
10,
92,
57,
ED,
18,
EA,
BE,
FD,
2C,
64,
54,
24,
9D,
FE,
39,
FC,
E0,
AE,
10,
5F,
91,
E0,
EE,
5A,
1D,
45,
DD,
4B,
F5,
B8,
6F,
1C,
C3,
A6,
21,
94,
72,
09,
E3,
35,
2E,
05,
CD,
8C,
64,
C6,
9E,
8A,
05,
28,
ED,
B7,
AD,
17,
3C,
26,
4A,
EE,
AD,
75,
3E,
88,
AB,
F4,
58,
0A,
73,
85,
4F,
48,
5F,
27,
12,
84,
E6,
D3,
DB,
6F,
82,
CE,
39,
9F,
21,
FC,
0E,
A6,
8E,
57,
49,
DF,
3F,
91,
16,
B2,
16,
86,
CF,
CD,
5E,
55,
9F,
96,
41,
86,
56,
E9,
5B,
BA,
6B,
AC,
2E,
CA,
15,
F3,
6C,
24,
63,
DD,
D1,
A6,
D1,
A6,
4C,
21,
A3,
92,
92,
33,
5C,
E9,
5E,
38,
C0,
13,
CC,
88,
B1,
FE,
A8,
85,
2E,
06,
92,
9C,
6E,
BB,
C5,
52,
69,
92,
F5,
F3,
83,
44,
82,
B0,
92,
01,
16,
BF,
15,
D2,
1F,
EA,
5E,
28,
51,
D6,
7D,
18,
68,
93,
64,
42,
97,
0B,
88,
BA,
07,
28,
88,
CB,
DE,
15,
7B,
A1,
A6,
6B,
DB,
8B,
12,
6A,
2D,
10,
E2,
55,
B6,
36,
73,
8A,
B8,
8C,
CE,
8D,
19,
5E,
54,
93,
34,
A8,
39,
7E,
E4,
09,
FD,
FF,
6B,
20,
9A,
18,
29,
94,
C0,
C2,
83,
FF,
83,
49,
BE,
7C,
CD,
60,
61,
89,
A0,
7E,
03,
E7,
EF,
30,
76,
04,
3A,
27,
72,
7C,
B1,
1D,
6C,
6A,
A3,
BF,
90,
1A,
28,
01,
3A,
65,
76,
D9,
FE,
3D,
35,
B5,
BF,
49,
6D,
B6,
FA,
76,
78,
07,
2C,
C3,
EA,
E2,
34,
C4,
DE,
A2,
8A,
E1,
2E,
B6,
44,
0F,
B0,
E8,
9B,
18,
91,
24,
78,
75,
B3,
97,
04,
A3,
CB,
95,
30,
B0,
D3,
83,
61,
28,
C2,
5B,
C2,
14,
8B,
F8,
EA,
CF,
2D,
94,
DD,
FB,
9D,
6B,
0E,
B8,
CD,
EB,
67,
9D,
7C,
A4,
33,
0D,
68,
54,
F1,
C1,
98,
42,
D3,
62,
9F,
96,
1E,
A7,
05,
4C,
D6,
32,
9C,
9A,
4D,
63,
59,
8C,
B8,
D8,
AE,
06,
17,
A4,
F5,
FB,
BB,
2A,
0F,
20,
A3,
9D,
87,
F1,
1C,
3B,
8D,
CB,
1A,
29,
C4,
9A,
13,
5B,
CB,
A6,
DA,
1D,
AA,
6E,
CC,
5A,
48,
90,
87,
AD,
2A,
CB,
B2,
96,
CC,
36,
E9,
D0,
A1,
FD,
EE,
19,
B8,
07,
63,
FF,
AA,
32,
8B,
94,
57,
3F,
A0,
6A,
73,
26,
E0,
CD,
A9,
00,
10,
09,
6E,
82,
58,
EC,
8B,
8E,
42,
8E,
E3,
70,
73,
39,
8B,
31,
17,
46,
51,
25,
43,
8C,
19,
09,
35,
C9,
35,
DB,
9C,
63,
38,
B2,
52,
AE,
E8,
0B,
D9,
91,
02,
6B,
9F,
C2,
28,
BF,
AF,
B4,
9A,
59,
A7,
14,
98,
A9,
E4,
CF,
AF,
4B,
57,
77,
7B,
6E,
CB,
DD,
42,
C6,
D1,
C1,
5C,
DA,
96,
3D,
6E,
E3,
F7,
51,
A0,
9B,
43,
6C,
3E,
62,
69,
E2,
53,
EF,
CD,
03,
8B,
29,
C7,
AA,
DD,
DA,
A4,
C2,
F5,
75,
CD,
50,
E8,
A1,
5B,
30,
2C,
55,
32,
3E,
24,
83,
3F,
05,
C4,
D9,
9C,
D9,
A3,
07,
CB,
F0,
29,
59,
15,
6E,
F6,
DE,
09,
DF,
C6,
94,
A8,
FF,
67,
4B,
BA,
28,
70,
59,
3D,
C9,
E1,
A1,
5C,
C9,
38,
1A,
C7,
40,
9D,
0F,
61,
1F,
A1,
08,
8C,
C2,
B2,
EA,
52,
4B,
61,
89,
C1,
7E,
C2,
F5,
7B,
3D,
AC,
46,
E5,
8E,
7C,
1B,
7F,
0E,
DE,
C5,
01,
C4,
00,
E9,
44,
F1,
26,
93,
B0,
CD,
73,
B4,
01,
C2,
03,
16,
A8,
D8,
DF,
0A,
27,
F9,
BB,
37,
84,
7C,
65,
E0,
7A,
47,
2B,
89,
38,
A5,
60,
9C,
A1,
16,
46,
E3,
5D,
6E,
17,
E5,
D4,
2D,
A2,
99,
37,
4A,
03,
2B,
7D,
06,
20,
52,
F3,
C2,
2F,
72,
1E,
CD,
AA,
FE,
7C,
01,
48,
BA,
CB,
6D,
C8,
D1,
4B,
69,
6F,
56,
A9,
E7,
66,
74,
B5,
98,
C3,
25,
34,
CA,
F3,
25,
85,
9F,
72,
5D,
45,
88,
58,
1D,
65,
1D,
C1,
0C,
B7,
C2,
3A,
22,
35,
61,
0E,
40,
89,
8E,
8A,
52,
B2,
0B,
DE,
2F,
F4,
70,
88,
4D,
F6,
7A,
D0,
19,
6C,
E2,
D3,
E9,
DF,
1F,
1F,
ED,
6B,
25,
1C,
64,
DB,
E7,
C3,
A3,
F2,
B8,
10,
A7,
D3,
FD,
7F,
6C,
2F,
96,
A7,
32,
D3,
C1,
92,
5B,
61,
F5,
1A,
11,
05,
25,
8E,
33,
35,
C9,
66,
69,
38,
BE,
FF,
68,
73,
B7,
BD,
89,
30,
ED,
F8,
B9,
D1,
F6,
B8,
52,
90,
9C,
AB,
8F,
39,
FD,
52,
49,
32,
48,
4C,
FA,
C5,
36,
2D,
44,
51,
19,
7B,
EA,
8B,
FA,
F6,
4C,
06,
86,
74,
F3,
31,
24,
8A,
46,
26,
E8,
32,
7C,
F1,
0A,
88,
46,
1A,
85,
DB,
1F,
C0,
09,
51,
5E,
25,
53,
DF,
CE,
2F,
5C,
54,
83,
3C,
9A,
EA,
1A,
F1,
66,
D9,
CC,
58,
25,
50,
DA,
BE,
30,
72,
38,
B1,
29,
92,
8A,
F1,
54,
B7,
A8,
BB,
07,
06,
37,
C0,
16,
F5,
D9,
88,
46,
85,
0E,
F7,
D9,
38,
94,
B3,
D4,
AF,
AB,
72,
A0,
64,
FA,
B7,
16,
10,
1E,
EA,
71,
B7,
D8,
F1,
04,
BA,
65,
C4,
66,
72,
21,
56,
15,
4D,
A2,
7B,
28,
EF,
CD,
40,
7D,
3E,
E0,
7E,
DB,
C1,
E9,
00,
D2,
2A,
91,
B2,
71,
92,
D6,
1D,
59,
51,
49,
8C,
19,
B0,
17,
30,
5C,
F5,
6A,
D1,
09,
24,
37,
73,
0A,
98,
62,
46,
06,
43,
02,
C3,
FA,
28,
62,
67,
B0,
F6,
79,
53,
39,
40,
1C,
0C,
97,
BF,
2D,
B5,
D3,
03,
EB,
87,
5B,
42,
54,
F7,
39,
67,
03,
48,
B7,
AE,
92,
F1,
A9,
09,
1D,
A1,
E8,
36,
56,
4C,
57,
D3,
5B,
A3,
FD,
46,
C9,
A4,
3E,
7B,
89,
12,
E2,
90,
5D,
8E,
53,
87,
63,
39,
83,
DA,
BB,
AA,
14,
8D,
62,
44,
1E,
4E,
E4,
B1,
D9,
B3,
6A,
9E,
88,
55,
20,
D1,
58,
5D,
65,
17,
B8,
2F,
ED,
2A,
47,
87,
ED,
40,
33,
9C,
F6,
08,
52,
4B,
A1,
53,
3E,
77,
7B,
92,
2E,
05,
97,
C1,
A3,
DD,
5E,
B6,
BB,
10,
B2,
72,
4C,
88,
E2,
9D,
CB,
05,
35,
AF,
EE,
75,
70,
5F,
37,
5A,
B9,
33,
A9,
58,
F4,
B7,
BA,
D0,
5C,
BD,
45,
12,
CE,
5E,
FA,
69,
59,
26,
02,
F1,
10,
53,
74,
6F,
58,
FD,
24,
E3,
AD,
C2,
D7,
EA,
B2,
B5,
37,
C1,
10,
00,
B8,
0D,
8A,
26,
FD,
8B,
1B,
76,
E6,
AA,
9B,
53,
C1,
C1,
E6,
9F,
A2,
78,
32,
B0,
68,
19,
62,
FF,
D0,
6C,
38,
27,
07,
AD,
78,
FB,
32,
B9,
D7,
8C,
6E,
64,
09,
F9,
60,
98,
B6,
F5,
E5,
3D,
F1,
59,
87,
D6,
27,
6F,
21,
6D,
FB,
EA,
D8,
24,
36,
8B,
7A,
05,
CB,
16,
BA,
A9,
A2,
CF,
92,
27,
7E,
7E,
C6,
54,
83,
CA,
B7,
B8,
53,
EA,
75,
89,
1D,
A5,
83,
8B,
66,
AD,
18,
F0,
32,
D1,
CD,
92,
7B,
93,
CA,
8C,
A4,
93,
51,
16,
4C,
26,
F7,
64,
3A,
AF,
0E,
8A,
9D,
9B,
98,
F9,
A1,
F0,
0D,
F8,
D7,
08,
12,
51,
E6,
DC,
1F,
78,
6D,
F0,
65,
27,
75,
9D,
DD,
43,
48,
67,
9F,
23,
51,
38,
47,
D3,
02,
D1,
82,
97,
E5,
AF,
98,
EE,
75,
30,
BF,
28,
21,
76,
C6,
98,
28,
E0,
6D,
EA,
C7,
CD,
DD,
9E,
1B,
7F,
EC,
9E,
25,
35,
6A,
EA,
91,
64,
AB,
B3,
0A,
D6,
E6,
91,
58,
E4,
E5,
EC,
73,
22,
A2,
C0,
19,
0B,
E1,
D1,
46,
B6,
66,
0A,
6E,
43,
27,
A7,
97,
6D,
F0,
76,
1B,
BE,
B9,
69,
69,
F1,
76,
0C,
C8,
60,
BB,
FB,
03,
72,
F0,
16,
1F,
42,
6F,
02,
71,
29,
5C,
21,
2A,
D7,
A5,
88,
22,
DE,
D0,
DC,
40,
DE,
CC,
E0,
C7,
97,
E7,
3E,
45,
82,
9E,
E7,
37,
B3,
8C,
1D,
87,
DC,
87,
8B,
19,
58,
3C,
E8,
7A,
E5,
34,
39,
A7,
61,
23,
36,
06,
68,
62,
A7,
84,
BF,
CA,
02,
AF,
25,
B9,
89,
9C,
24,
1B,
E2,
6A,
FC,
5A,
FD,
AC,
74,
14,
43,
20,
FE,
2E,
77,
FA,
2D,
98,
88,
49,
60,
8C,
BF,
4A,
44,
37,
29,
F9,
B4,
F6,
68,
3B,
78,
65,
C5,
69,
3C,
FD,
2C,
EA,
BB,
83,
E1,
A6,
68,
83,
95,
BA,
E6,
D3,
6A,
21,
91,
36,
E5,
F6,
4D,
22,
A2,
75,
77,
7A,
19,
7A,
D5,
16,
A9,
AC,
62,
65,
FA,
76,
7F,
74,
57,
66,
66,
FF,
9D,
50,
CB,
26,
4E,
57,
29,
CF,
5E,
6E,
31,
27,
96,
93,
98,
AE,
18,
5C,
0A,
F7,
A5,
7B,
A9,
7A,
3A,
70,
D2,
46,
A7,
E1,
6C,
C9,
D7,
C3,
D8,
F2,
B1,
00,
85,
19,
55,
92,
95,
52,
01,
33,
7B,
89,
2E,
45,
B2,
C8,
F3,
C1,
64,
F9,
99,
A0,
2E,
C1,
E7,
AB,
FF,
23,
0D,
A0,
DF,
E9,
1F,
02,
0D,
C5,
AB,
78,
5B,
6D,
85,
BA,
26,
F2,
90,
7B,
2C,
92,
07,
D1,
69,
36,
76,
33,
93,
58,
CD,
00,
83,
3B,
B4,
73,
51,
49,
72,
5B,
FA,
29,
2E,
CC,
F0,
E2,
CB,
BA,
90,
09,
12,
77,
8A,
1E,
A0,
E2,
8E,
D5,
86,
8B,
D8,
53,
A3,
33,
4A,
E8,
78,
5D,
ED,
8B,
8A,
5D,
BB,
E0,
39,
9A,
14,
75,
17,
4D,
83,
2E,
BA,
A7,
48,
93,
A1,
49,
C2,
EB,
C3,
1E,
FB,
7A,
6F,
1E,
E2,
A9,
FD,
0A,
32,
DD,
DC,
D5,
1E,
31,
5C,
84,
B2,
3B,
50,
B6,
EC,
2C,
EE,
B9,
C3,
6A,
25,
3F,
66,
33,
B8,
DD,
04,
E2,
4D,
D8,
B4,
54,
18,
36,
35,
E4,
31,
16,
95,
96,
A5,
1A,
1C,
33,
E0,
4E,
5E,
A7,
5C,
32,
92,
2A,
9A,
37,
9C,
1D,
4B,
A5,
31,
F8,
08,
87,
3A,
63,
C4,
FC,
06,
2E,
C2,
BE,
55,
8C,
2D,
DE,
84,
0D,
3F,
DD,
E2,
E5,
84,
7E,
E2,
FD,
94,
47,
6C,
64,
B2,
38,
E3,
3A,
26,
D7,
D9,
95,
6E,
C2,
6D,
B4,
E3,
AF,
FA,
7A,
15,
75,
EF,
52,
A6,
7D,
28,
55,
5C,
1E,
05,
35,
C7,
29,
A4,
41,
87,
3C,
41,
96,
66,
C4,
A1,
2E,
AE,
E6,
53,
1D,
3A,
DD,
2D,
5A,
B7,
DF,
6F,
F3,
1A,
6A,
0C,
7A,
22,
58,
C5,
85,
B4,
A0,
64,
39,
3C,
A1,
5E,
99,
B6,
05,
B0,
14,
0D,
CE,
61,
C1,
0D,
A2,
78,
20,
97,
82,
D4,
44,
72,
F1,
A3,
44,
41,
3A,
F0,
F6,
09,
A5,
49,
D3,
56,
92,
BC,
EB,
95,
BF,
B6,
64,
F2,
8A,
D4,
01,
33,
CD,
91,
70,
A6,
0F,
8B,
8B,
18,
91,
FC,
9C,
CC,
59,
F3,
68,
4A,
95,
50,
A9,
19,
08,
E4,
50,
30,
2A,
5F,
20,
03,
D4,
2D,
8D,
06,
14,
64,
85,
ED,
B2,
42,
0D,
97,
0A,
19,
9B,
89,
84,
DC,
AB,
CC,
BA,
13,
BA,
38,
F7,
FD,
05,
0E,
FF,
54,
7C,
88,
F5,
36,
7C,
82,
FD,
0A,
19,
6C,
DD,
5A,
35,
0E,
22,
B8,
49,
55,
F1,
58,
52,
EC,
A3,
78,
26,
AC,
66,
CB,
78,
52,
F8,
7E,
65,
2C,
C4,
85,
97,
EA,
F6,
7E,
5E,
FB,
1E,
96,
35,
71,
FA,
DA,
02,
C6,
24,
4D,
17,
AC,
E7,
A4,
C3,
54,
0B,
C5,
D9,
2A,
27,
2F,
91,
E9,
EF,
F0,
DE,
22,
27,
DC,
0E,
DC,
E2,
5D,
24,
61,
FB,
17,
29,
96,
8D,
EA,
31,
FC,
A8,
22,
A0,
03,
65,
74,
6D,
B8,
5E,
2F,
92,
BE,
75,
CE,
76,
92,
BC,
95,
B1,
D9,
64,
0D,
EB,
EF,
8A,
E6,
4A,
F2,
3D,
3A,
B5,
9A,
F7,
0F,
33,
DA,
3B,
B7,
E7,
BF,
D6,
17,
52,
51,
8D,
DD,
13,
59,
12,
FA,
1B,
06,
F9,
A3,
22,
53,
77,
16,
DD,
85,
8A,
1D,
C7,
F0,
F4,
3C,
12,
4B,
25,
79,
32,
F7,
2F,
A8,
F9,
87,
20,
2B,
13,
10,
78,
59,
F1,
59,
71,
F5,
10,
3E,
2A,
26,
79,
A2,
EF,
94,
E3,
01,
E4,
E1,
F8,
EE,
9E,
1F,
43,
11,
F9,
82,
0E,
F7,
D6,
CE,
0D,
A9,
F8,
FC,
0D,
49,
71,
FE,
52,
30,
07,
15,
51,
6D,
F2,
46,
E3,
AC,
55,
B9,
5C,
FD,
6D,
64,
02,
85,
06,
99,
64,
19,
7B,
F1,
F2,
27,
4B,
AA,
13,
5F,
6A,
2F,
12,
C8,
B9,
72,
A3,
DD,
22,
DF,
EA,
B4,
06,
DB,
B2,
1B,
58,
11,
A7,
66,
A1,
BD,
44,
A3,
2C,
57,
35,
EE,
FA,
B8,
5C,
0C,
5C,
4D,
21,
BC,
98,
A7,
40,
F6,
F4,
96,
DE,
0B,
FB,
EC,
36,
C7,
F1,
4D,
08,
BA,
0A,
2F,
39,
9F,
C8,
12,
51,
1F,
84,
4B,
81,
83,
0F,
28,
FD,
B3,
3C,
94,
CD,
7C,
26,
0E,
01,
50,
05,
52,
64,
77,
B2,
AE,
74,
31,
77,
BF,
1F,
29,
EA,
77,
9A,
BD,
07,
A7,
68,
6A,
61,
5C,
55,
AD,
F9,
F3,
17,
09,
58,
7E,
E4,
CA,
B3,
71,
DC,
C6,
3B,
19,
7A,
D7,
FE,
9B,
E0,
04,
E4,
CF,
C0,
97,
FD,
8D,
74,
F7,
DA,
89,
5F,
5E,
F9,
64,
50,
B1,
0C,
35,
BB,
F1,
23,
90,
DB,
28,
9F,
E2,
22,
B5,
58,
53,
C9,
2F,
27,
44,
16,
B1,
17,
20,
BE,
87,
48,
5A,
E0,
83,
DB,
FF,
1E,
55,
B8,
12,
CD,
A3,
38,
3F,
99,
14,
17,
4D,
D8,
74,
A0,
CB,
6C,
A3,
37,
AB,
2E,
72,
DA,
D7,
91,
D1,
31,
62,
09,
AC,
0E,
18,
94,
D5,
9B,
69,
D2,
1D,
F1,
B8,
28,
A8,
EB,
F8,
F9,
37,
55,
44,
F4,
4B,
83,
AF,
27,
C6,
A9,
A7,
F0,
DE,
B3,
4F,
21,
31,
C3,
EF,
F4,
BC,
C5,
A1,
99,
37,
28,
63,
BD,
F8,
F6,
38,
1C,
9F,
92,
B1,
14,
42,
00,
49,
2F,
73,
E3,
BC,
C0,
D6,
F0,
1E,
27,
75,
F5,
A0,
DF,
BB,
CB,
04,
47,
64,
10,
B3,
3F,
32,
3E,
EC,
4C,
7D,
55,
4C,
08,
8C,
8C,
9C,
2A,
7C,
94,
AD,
E7,
D7,
30,
7D,
7B,
A9,
89,
E9,
99,
5D,
F1,
C8,
60,
2E,
72,
59,
B0,
88,
F7,
74,
A2,
FF,
F4,
E9,
15,
2E,
08,
D4,
B7,
13,
48,
6F,
26,
25,
42,
C9,
38,
AE,
70,
86,
C4,
19,
7D,
B0,
DD,
12,
B2,
C9,
D1,
F1,
BB,
0C,
E9,
1D,
97,
73,
FC,
B2,
29,
C2,
B0,
94,
C4,
26,
CF,
5B,
06,
01,
A5,
40,
89,
6F,
C1,
B6,
4A,
68,
89,
F8,
D7,
ED,
C1,
EE,
04,
25,
92,
BC,
99,
53,
9B,
24,
EC,
DC,
E7,
8F,
5D,
A1,
DF,
A7,
41,
4A,
96,
6E,
05,
20,
D7,
F4,
E3,
22,
17,
83,
E6,
7C,
4B,
A0,
3B,
F2,
7A,
44,
C4,
17,
B2,
89,
4E,
33,
8A,
F5,
F5,
86,
44,
79,
33,
46,
CA,
1B,
91,
D6,
B2,
5C,
15,
DD,
6D,
DB,
BD,
13,
1C,
0F,
D0,
B8,
E7,
76,
5D,
D2,
1A,
74,
6A,
4A,
D9,
C9,
FA,
C1,
DE,
E6,
E0,
61,
BF,
45,
B8,
16,
18,
D2,
9A,
FB,
36,
6E,
39,
17,
B4,
5A,
1F,
CE,
FC,
02,
99,
CF,
9F,
E1,
5B,
02,
D1,
98,
EC,
91,
52,
05,
AB,
CC,
82,
7D,
56,
2D,
23,
08,
71,
1B,
5D,
34,
DC,
78,
4F,
DD,
F7,
FB,
27,
B7,
EE,
11,
40,
3D,
21,
5D,
22,
20,
E0,
9C,
57,
A7,
BB,
63,
14,
BE,
CB,
DD,
A7,
DE,
BA,
37,
83,
2A,
67,
3F,
49,
A3,
FF,
3D,
6F,
E3,
4F,
74,
02,
AE,
29,
07,
42,
26,
2F,
A0,
23,
89,
52,
46,
17,
0D,
85,
02,
D0,
40,
1E,
F3,
75,
70,
4D,
2F,
7D,
77,
EA,
E8,
4F,
E2,
30,
EF,
1E,
8E,
B4,
7E,
12,
F6,
18,
65,
45,
60,
EB,
01,
D0,
EA,
4A,
15,
02,
47,
29,
D9,
42,
0D,
B0,
A1,
91,
55,
5C,
45,
FD,
75,
AC,
FA,
AC,
87,
CE,
9D,
DE,
EA,
CD,
73,
D0,
6B,
E2,
79,
39,
1F,
DB,
78,
14,
DD,
97,
9E,
0B,
0D,
E5,
98,
13,
B7,
CE,
2E,
75,
82,
32,
28,
74,
00,
1A,
92,
F5,
07,
E1,
55,
E0,
F3,
AC,
E6,
6E,
83,
75,
AC,
F2,
40,
1C,
54,
D5,
44,
F2,
E7,
C5,
E4,
BE,
C5,
E7,
E5,
16,
A1,
EF,
96,
EF,
FB,
FA,
64,
92,
95,
5D,
87,
4D,
98,
97,
15,
12,
20,
21,
FD,
17,
2B,
1D,
EC,
1E,
FC,
E1,
A2,
77,
64,
B6,
EA,
5D,
0D,
B8,
0C,
9A,
4F,
8B,
57,
18,
35,
EE,
86,
54,
98,
C3,
39,
3C,
E8,
CA,
0E,
CE,
DB,
27,
F0,
00,
FE,
4A,
21,
9E,
0D,
ED,
0E,
02,
0A,
8D,
89,
2B,
0C,
90,
D5,
2D,
1C,
DC,
4D,
D7,
E2,
94,
D9,
F1,
DB,
32,
13,
C2,
4A,
B6,
36,
4A,
BD,
27,
94,
0F,
E4,
D8,
C1,
D9,
6E,
D7,
A4,
63,
96,
02,
B7,
2E,
DB,
75,
54,
D8,
26,
91,
BF,
A6,
24,
75,
9A,
FD,
75,
32,
FE,
20,
E8,
ED,
85,
5D,
D7,
FD,
87,
43,
B2,
35,
27,
74,
2A,
8E,
17,
BC,
32,
A2,
98,
4D,
EC,
68,
FE,
14,
DA,
6C,
67,
53,
D8,
8B,
AF,
B6,
9C,
5B,
06,
39,
F7,
4C,
D3,
7E,
1D,
18,
A7,
2C,
23,
76,
59,
65,
B6,
17,
3E,
61,
09,
4B,
3B,
CF,
B8,
B8,
2A,
D4,
41,
24,
CF,
10,
D1,
75,
17,
47,
36,
4E,
0B,
6B,
42,
6C,
57,
BA,
A0,
09,
32,
10,
FA,
E8,
24,
B3,
C6,
D8,
A5,
CF,
9B,
FC,
28,
D8,
2A,
D7,
A4,
E4,
BC,
1D,
73,
75,
E1,
8A,
CC,
E4,
5C,
31,
31,
A7,
E1,
A4,
AA,
2C,
50,
AD,
FE,
BB,
1E,
7B,
C3,
43,
BE,
C6,
0E,
25,
C0,
1D,
F9,
72,
36,
BC,
DF,
F5,
FF,
C6,
BA,
3E,
FD,
90,
0B,
BC,
C8,
48,
92,
03,
6E,
9F,
E9,
53,
30,
62,
E4,
2D,
71,
43,
AF,
DC,
71,
6A,
23,
9C,
7A,
47,
C2,
AC,
8A,
B7,
4F,
04,
69,
7F,
F3,
51,
67,
9E,
8C,
1A,
F2,
98,
66,
5A,
E9,
41,
B4,
41,
23,
3A,
9E,
EF,
C1,
25,
D1,
23,
FD,
E4,
E0,
9A,
D9,
33,
36,
97,
CB,
12,
44,
5E,
99,
A0,
C4,
95,
16,
EF,
B3,
11,
5B,
89,
3F,
42,
38,
FB,
FF,
59,
C0,
A7,
24,
9E,
62,
EC,
56,
82,
68,
CF,
B2,
CA,
57,
F3,
9C,
E5,
2C,
D5,
7C,
63,
DF,
FC,
91,
1F,
60,
CE,
F2,
C3,
2D,
61,
2D,
CB,
D2,
A8,
73,
47,
97,
15,
1C,
7A,
4F,
2F,
F5,
00,
7C,
2F,
8B,
DB,
EE,
26,
AA,
7A,
88,
D1,
C1,
18,
AA,
8D,
58,
DD,
F4,
26,
B3,
B2,
E3,
BC,
56,
A3,
21,
1B,
36,
24,
D5,
88,
AF,
FA,
27,
8D,
1A,
0C,
A8,
6E,
9D,
3A,
BB,
F5,
89,
D7,
C3,
09,
FD,
BA,
BD,
95,
FD,
B1,
CB,
86,
AB,
91,
EF,
A8,
B8,
EF,
3D,
94,
A9,
44,
06,
5A,
E9,
10,
F0,
00,
FB,
A3,
67,
E0,
16,
17,
BC,
79,
F2,
97,
4B,
B3,
9E,
B4,
C4,
69,
F2,
39,
A1,
CE,
CF,
06,
08,
72,
E1,
38,
FF,
0E,
EB,
BA,
FC,
0F,
64,
20,
33,
EA,
72,
EF,
6E,
12,
57,
C0,
23,
33,
D3,
87,
C0,
F3,
43,
64,
3A,
5A,
94,
B8,
8C,
A8,
AA,
62,
B1,
31,
D4,
BE,
63,
E2,
4C,
26,
19,
5A,
69,
10,
FE,
5A,
8E,
F0,
98,
CC,
0A,
D0,
1D,
52,
15,
E2,
FE,
85,
A7,
D8,
25,
24,
33,
FB,
DC,
17,
8D,
AB,
E3,
71,
9E,
12,
74,
10,
00,
EE,
CC,
CC,
09,
E1,
17,
9E,
89,
69,
A1,
FC,
FA,
EA,
20,
7D,
7A,
26,
06,
C1,
8D,
61,
D9,
45,
05,
25,
0E,
17,
20,
42,
93,
63,
A0,
59,
2A,
62,
9B,
59,
87,
3F,
DB,
41,
67,
62,
D5,
19,
0C,
85,
18,
A8,
1F,
B9,
4A,
28,
D5,
70,
33,
AF,
4A,
FE,
B3,
A5,
5A,
BB,
B9,
E9,
E4,
8F,
4E,
54,
EE,
D9,
6C,
09,
EA,
AB,
FB,
B6,
A9,
06,
11,
FD,
0E,
F6,
6C,
1C,
DC,
46,
8E,
AA,
78,
6C,
75,
6C,
44,
D9,
F8,
CD,
D3,
31,
A4,
00,
31,
AA,
B2,
9F,
17,
A0,
B8,
B1,
49,
2B,
7F,
E2,
82,
8F,
6F,
9F,
A2,
CF,
86,
66,
FA,
86,
C1,
99,
6F,
3E,
14,
2F,
2C,
59,
54,
49,
88,
AA,
97,
D5,
92,
94,
B3,
83,
FF,
4A,
A2,
3A,
4D,
AC,
6E,
16,
90,
86,
D3,
60,
42,
48,
C3,
1C,
A2,
A0,
8A,
F0,
26,
F6,
3A,
E3,
96,
8D,
AB,
9B,
62,
86,
DC,
69,
53,
D9,
6D,
B7,
10,
0C,
B5,
8E,
52,
4E,
A0,
77,
5E,
7B,
50,
65,
53,
AD,
ED,
61,
01,
F4,
53,
F0,
1E,
42,
0E,
1E,
76,
77,
97,
14,
BD,
52,
5C,
C7,
E3,
62,
6F,
E3,
3B,
CF,
B4,
74,
24,
25,
30,
3F,
A3,
1B,
45,
34,
48,
A4,
E3,
66,
BA,
C4,
F0,
55,
82,
3B,
EA,
BB,
4A,
B9,
FB,
D7,
98,
E0,
C5,
CB,
30,
94,
E4,
E7,
AB,
90,
32,
A7,
9F,
33,
3A,
2D,
81,
53,
90,
94,
E2,
CA,
64,
0B,
29,
01,
AD,
9A,
A9,
0D,
8B,
AF,
0B,
EE,
D3,
88,
E6,
64,
22,
F1,
D7,
63,
E1,
20,
3C,
DA,
0D,
94,
9F,
AA,
4A,
77,
44,
FC,
13,
BB,
72,
AA,
3B,
DE,
6F,
11,
4F,
05,
46,
98,
03,
A7,
08,
A6,
84,
10,
32,
16,
F8,
09,
46,
9A,
57,
D8,
79,
A2,
5B,
2D,
85,
B2,
FD,
88,
9B,
41,
F1,
AD,
AA,
FC,
6D,
EE,
05,
C6,
CF,
14,
7C,
63,
0B,
46,
C7,
D0,
C8,
56,
96,
FB,
B6,
51,
49,
2B,
E3,
6D,
75,
FF,
EF,
97,
97,
33,
DF,
EC,
68,
5B,
6E,
A1,
2F,
76,
42,
FC,
83,
FF,
5D,
88,
B0,
36,
45,
D1,
A5,
F1,
7A,
A0,
54,
D2,
94,
25,
23,
AF,
0C,
1E,
2C,
D1,
E2,
7C,
D7,
64,
60,
B9,
A3,
D0,
8A,
C1,
87,
2C,
04,
28,
CA,
15,
8D,
F8,
3B,
A9,
73,
46,
E0,
B3,
F7,
0E,
C5,
DD,
9E,
57,
DB,
12,
A7,
79,
43,
4C,
B2,
EA,
AF,
83,
71,
A0,
0A,
56,
70,
DE,
FC,
A9,
95,
45,
41,
41,
F2,
67,
AC,
B4,
4C,
21,
37,
B2,
71,
B3,
26,
10,
AD,
DC,
08,
15,
D7,
E5,
4C,
42,
1C,
06,
EA,
17,
70,
99,
6E,
47,
12,
E3,
87,
49,
FA,
FE,
4F,
31,
5F,
B5,
F5,
3F,
EB,
4B,
50,
5A,
0C,
3D,
51,
1B,
F4,
33,
5A,
74,
A4,
5C,
2F,
A7,
31,
39,
22,
EB,
B3,
52,
64,
CD,
6B,
D1,
A0,
76,
04,
A2,
4A,
C4,
D2,
FA,
19,
85,
58,
68,
6A,
0B,
3F,
BA,
C1,
44,
51,
E4,
03,
6F,
16,
6F,
BB,
AE,
DF,
F2,
38,
3B,
EE,
BC,
D7,
B0,
77,
CA,
F9,
4B,
28,
F9,
7B,
A0,
35,
50,
CE,
66,
B9,
11,
38,
F1,
8C,
62,
FF,
D4,
7F,
D9,
39,
03,
52,
41,
6E,
FC,
19,
58,
63,
BF,
7A,
9E,
0F,
99,
56,
0D,
5D,
DC,
03,
6E,
E7,
14,
21,
2E,
FA,
FD,
77,
50,
84,
5C,
CD,
C6,
6E,
A2,
E5,
59,
E4,
1A,
07,
1F,
47,
89,
27,
A8,
DE,
9A,
AF,
30,
D7,
22,
E4,
E5,
61,
17,
0A,
C3,
12,
D2,
67,
44,
E3,
4F,
1B,
D9,
E5,
F8,
D4,
56,
37,
C2,
70,
E2,
C5,
A8,
5F,
9D,
07,
E7,
0E,
1C,
EB,
87,
55,
E5,
26,
C3,
B8,
C5,
E7,
FE,
66,
FE,
E1,
BB,
A9,
6F,
0D,
12,
E3,
DE,
A1,
3F,
B3,
54,
56,
46,
F5,
FF,
96,
AB,
03,
14,
65,
46,
5F,
2C,
E9,
0C,
56,
0E,
83,
52,
35,
1E,
7E,
1F,
B1,
4D,
B7,
5F,
0C,
BE,
D9,
0B,
40,
9F,
BA,
C2,
09,
EB,
63,
12,
EC,
C2,
DE,
AF,
B2,
E7,
76,
F4,
48,
2B,
38,
F6,
B0,
EB,
0B,
2A,
91,
F5,
3E,
3D,
24,
70,
5A,
A5,
17,
29,
04,
2F,
5C,
9D,
19,
D6,
0F,
B1,
CF,
C9,
B9,
1C,
35,
F3,
87,
15,
B6,
DD,
4D,
86,
4E,
8A,
2F,
46,
9E,
90,
0F,
B1,
E5,
B7,
3D,
6D,
30,
27,
6D,
2A,
D0,
C8,
B2,
A3,
44,
C7,
33,
8E,
88,
F4,
DF,
7F,
D2,
9C,
18,
90,
37,
09,
89,
F0,
30,
64,
ED,
A0,
EB,
8A,
78,
1B,
19,
17,
2A,
BF,
0B,
DA,
46,
7C,
E2,
3A,
D7,
2D,
48,
F6,
3A,
D5,
CC,
4A,
91,
60,
BF,
8F,
42,
88,
6C,
54,
3E,
85,
AE,
7F,
98,
4E,
E3,
C3,
58,
6D,
DC,
D1,
92,
42,
C5,
D2,
03,
46,
C5,
6B;